const unsigned char model_data[] = {28,0,0,0,84,70,76,51,20,0,32,0,28,0,24,0,20,0,16,0,12,0,0,0,8,0,4,0,20,0,0,0,28,0,0,0,140,0,0,0,228,0,0,0,228,169,0,0,244,169,0,0,140,186,0,0,3,0,0,0,1,0,0,0,4,0,0,0,142,83,255,255,12,0,0,0,28,0,0,0,60,0,0,0,15,0,0,0,115,101,114,118,105,110,103,95,100,101,102,97,117,108,116,0,1,0,0,0,4,0,0,0,144,255,255,255,31,0,0,0,4,0,0,0,8,0,0,0,111,117,116,112,117,116,95,48,0,0,0,0,1,0,0,0,4,0,0,0,222,85,255,255,4,0,0,0,15,0,0,0,107,101,114,97,115,95,116,101,110,115,111,114,95,49,56,0,2,0,0,0,52,0,0,0,4,0,0,0,220,255,255,255,34,0,0,0,4,0,0,0,19,0,0,0,67,79,78,86,69,82,83,73,79,78,95,77,69,84,65,68,65,84,65,0,8,0,12,0,8,0,4,0,8,0,0,0,33,0,0,0,4,0,0,0,19,0,0,0,109,105,110,95,114,117,110,116,105,109,101,95,118,101,114,115,105,111,110,0,35,0,0,0,252,168,0,0,244,168,0,0,100,168,0,0,240,167,0,0,212,167,0,0,184,167,0,0,168,39,0,0,152,15,0,0,8,15,0,0,120,2,0,0,80,2,0,0,60,2,0,0,20,2,0,0,0,2,0,0,232,1,0,0,204,1,0,0,176,1,0,0,148,1,0,0,4,1,0,0,252,0,0,0,244,0,0,0,236,0,0,0,228,0,0,0,220,0,0,0,212,0,0,0,204,0,0,0,196,0,0,0,188,0,0,0,180,0,0,0,172,0,0,0,164,0,0,0,156,0,0,0,148,0,0,0,116,0,0,0,4,0,0,0,230,86,255,255,4,0,0,0,96,0,0,0,16,0,0,0,0,0,0,0,8,0,14,0,8,0,4,0,8,0,0,0,16,0,0,0,36,0,0,0,0,0,6,0,8,0,4,0,6,0,0,0,4,0,0,0,0,0,0,0,12,0,24,0,20,0,16,0,12,0,4,0,12,0,0,0,72,153,172,25,140,235,201,235,2,0,0,0,2,0,0,0,4,0,0,0,6,0,0,0,50,46,50,48,46,48,0,0,82,87,255,255,4,0,0,0,16,0,0,0,50,46,51,46,48,0,0,0,0,0,0,0,0,0,0,0,20,71,255,255,24,71,255,255,28,71,255,255,32,71,255,255,36,71,255,255,40,71,255,255,44,71,255,255,48,71,255,255,52,71,255,255,56,71,255,255,60,71,255,255,64,71,255,255,68,71,255,255,72,71,255,255,166,87,255,255,4,0,0,0,128,0,0,0,159,221,63,63,60,102,48,63,219,162,254,191,46,118,48,191,36,202,125,63,95,83,111,63,152,218,35,63,7,131,248,191,131,211,114,191,233,182,189,191,94,176,12,191,215,120,13,64,98,97,80,63,246,43,60,63,204,187,234,62,97,24,179,62,61,75,59,191,90,16,68,191,64,210,61,191,172,73,229,62,37,111,26,63,44,201,95,191,149,145,121,191,13,142,19,63,92,58,60,62,40,23,137,63,66,181,45,63,80,252,163,191,223,188,224,190,78,244,0,191,142,13,150,63,112,68,32,63,50,88,255,255,4,0,0,0,12,0,0,0,1,0,0,0,1,0,0,0,1,0,0,0,74,88,255,255,4,0,0,0,12,0,0,0,0,0,0,0,0,0,0,0,0,0,0,0,98,88,255,255,4,0,0,0,12,0,0,0,0,0,0,0,255,255,255,255,0,0,0,0,122,88,255,255,4,0,0,0,8,0,0,0,0,0,0,0,0,0,0,0,142,88,255,255,4,0,0,0,4,0,0,0,2,0,0,0,158,88,255,255,4,0,0,0,24,0,0,0,0,0,0,0,0,0,0,0,14,0,0,0,0,0,0,0,0,0,0,0,0,0,0,0,194,88,255,255,4,0,0,0,4,0,0,0,253,255,255,255,210,88,255,255,4,0,0,0,24,0,0,0,0,0,0,0,0,0,0,0,7,0,0,0,0,0,0,0,0,0,0,0,0,0,0,0,246,88,255,255,4,0,0,0,128,12,0,0,169,37,76,62,150,130,170,61,145,115,186,189,242,196,116,60,44,194,75,190,222,24,144,190,250,179,124,61,186,146,234,61,209,181,15,62,72,75,51,189,130,92,118,189,109,30,82,62,43,108,56,190,151,74,209,61,43,215,221,61,44,184,14,190,23,50,240,61,95,76,150,61,0,117,166,59,210,210,166,61,226,162,237,189,26,146,36,189,84,172,165,61,91,244,254,61,145,78,133,190,42,246,74,61,160,202,90,62,153,131,79,62,201,236,177,189,117,105,15,60,165,84,2,62,241,40,9,62,74,213,143,189,156,192,177,61,105,89,8,191,145,12,177,189,29,199,76,59,101,59,186,60,213,25,49,190,117,224,255,61,80,48,193,189,80,229,179,60,82,98,5,190,110,236,43,190,135,84,169,190,217,78,36,62,198,73,131,191,84,166,117,190,200,33,220,61,224,54,148,61,34,158,44,190,57,197,31,62,126,103,44,63,45,5,4,62,21,148,216,61,51,124,248,61,34,216,155,61,129,66,1,62,49,209,26,191,224,192,117,62,157,205,129,61,130,200,190,61,12,136,46,61,118,107,73,191,223,233,134,62,235,114,61,62,145,99,66,190,125,132,11,191,56,111,17,62,231,208,35,63,232,102,220,61,55,110,210,61,117,76,29,190,92,118,139,58,215,24,51,190,47,154,47,62,67,164,193,61,236,157,21,62,187,199,70,190,172,152,171,191,166,98,136,189,65,200,98,190,110,204,219,190,63,49,18,62,1,103,72,63,224,176,69,190,170,30,160,190,97,98,95,190,62,155,135,61,236,207,192,190,25,127,80,188,34,100,63,62,16,245,17,191,85,16,108,191,255,177,206,61,85,100,208,61,129,99,146,62,11,109,35,61,207,40,116,191,246,86,46,190,218,156,108,191,237,212,221,190,78,214,200,59,189,69,17,191,135,116,5,62,105,140,104,191,19,109,182,190,146,104,132,62,100,65,54,191,178,8,220,61,166,123,214,61,172,50,99,61,71,209,244,188,183,115,210,60,100,137,133,61,250,206,42,62,171,176,245,62,238,122,149,61,80,102,133,190,239,207,10,62,220,166,67,62,72,70,128,189,113,104,220,190,39,143,141,190,147,66,13,190,80,8,129,191,121,206,9,62,179,166,64,62,122,196,93,190,21,242,105,61,240,161,204,61,8,193,138,190,69,246,19,190,136,182,190,190,242,95,157,190,164,248,77,190,255,219,135,62,210,214,25,61,115,59,66,60,210,148,137,62,68,231,98,60,6,215,243,61,9,186,106,62,49,131,216,61,59,58,147,189,17,62,47,61,111,195,14,188,151,118,24,190,52,183,25,191,82,96,157,190,32,61,82,62,91,151,237,189,43,199,74,190,231,8,244,189,222,20,251,187,39,45,174,62,72,222,177,189,172,140,26,190,221,95,229,188,13,235,86,62,250,75,28,62,147,62,247,61,128,68,19,62,204,52,160,190,118,51,221,189,146,38,159,190,202,66,147,59,192,212,101,62,140,181,138,61,234,47,92,187,176,215,104,190,205,248,163,186,92,170,25,190,128,131,40,190,47,167,67,188,35,48,27,62,240,141,151,189,156,172,12,62,35,140,133,190,165,76,47,190,130,240,112,192,149,76,38,191,4,36,204,60,65,27,78,190,164,114,44,190,105,137,78,62,129,227,82,190,188,8,4,191,76,90,1,62,182,222,175,188,18,92,20,189,235,218,83,190,102,95,68,190,245,215,175,61,41,24,99,192,39,231,38,62,92,70,19,62,125,38,105,62,90,143,133,189,101,155,195,61,198,63,224,190,45,46,217,190,217,57,1,60,136,7,65,192,126,171,219,190,207,119,90,190,143,37,27,190,195,177,43,192,30,214,178,61,2,227,13,61,193,161,119,61,172,47,33,62,3,240,249,191,85,50,2,62,145,162,78,188,241,69,216,61,42,238,239,190,94,230,31,62,74,78,182,191,37,193,133,62,120,22,212,190,129,192,40,62,177,27,41,191,60,219,243,188,180,1,179,189,58,44,134,62,203,192,216,60,226,144,240,190,172,10,184,189,96,67,29,190,24,106,77,190,79,60,35,62,59,239,133,62,56,34,69,189,38,208,126,61,248,86,127,190,132,215,179,190,117,67,198,190,3,175,103,62,141,175,93,190,142,55,159,61,241,21,21,190,50,77,234,61,33,139,26,190,245,213,7,191,2,206,114,190,191,133,16,190,249,43,194,189,113,189,131,189,17,122,69,62,194,85,135,189,144,147,203,61,64,183,197,61,23,33,8,61,233,218,106,190,4,197,166,61,18,28,226,191,159,72,250,191,75,93,208,190,138,85,177,191,133,201,170,191,106,186,150,191,148,70,112,192,131,222,11,192,142,140,204,191,45,236,144,191,15,7,28,192,53,213,71,191,199,183,64,192,15,163,90,192,210,105,143,191,153,105,126,191,251,80,130,192,64,79,66,192,29,73,70,192,129,77,184,191,176,146,64,190,84,14,172,191,68,115,31,191,19,42,220,191,47,80,113,191,102,233,76,192,43,232,238,190,251,182,173,191,252,88,28,191,245,131,18,191,71,155,58,192,25,27,46,191,172,139,202,191,112,7,209,191,139,120,63,191,87,161,170,191,150,19,210,191,171,207,133,191,51,2,124,192,105,6,255,191,185,143,229,191,184,49,119,191,98,82,28,192,203,96,102,191,237,135,58,192,177,159,106,192,170,168,129,191,166,10,143,191,170,227,130,192,53,210,76,192,116,44,76,192,205,38,139,191,175,99,36,191,43,75,146,191,141,244,55,191,117,107,247,191,46,137,151,190,95,20,85,192,204,46,232,190,131,44,237,191,218,249,14,191,183,4,141,191,155,254,79,192,82,134,85,191,238,195,182,191,86,218,241,191,114,32,31,191,35,155,183,191,241,31,188,191,85,104,101,191,253,137,132,192,15,165,7,192,23,217,232,191,234,212,131,191,136,253,17,192,217,41,129,191,87,52,66,192,53,26,100,192,45,155,163,191,62,140,75,191,112,131,129,192,103,180,75,192,252,229,76,192,109,250,194,191,129,165,24,191,154,227,173,191,198,71,99,191,244,98,247,191,250,183,56,191,177,112,75,192,48,105,7,191,47,103,186,191,87,169,7,191,139,137,75,191,0,17,59,192,57,24,82,191,19,222,220,191,249,151,3,192,10,245,40,191,81,162,178,191,152,129,242,191,184,53,133,191,30,192,120,192,133,75,14,192,77,251,198,191,247,28,131,191,63,233,253,191,225,250,18,191,187,67,73,192,18,244,114,192,55,16,154,191,124,167,135,191,20,185,128,192,108,121,78,192,168,32,53,192,233,233,187,191,36,33,153,190,131,236,155,191,70,104,68,191,180,222,231,191,149,253,58,191,115,2,51,192,93,71,44,191,20,51,208,191,129,195,116,191,76,118,127,191,98,40,103,192,249,101,122,191,248,67,79,61,48,76,117,62,187,178,2,62,179,189,164,190,91,56,63,190,245,64,15,190,135,22,166,189,177,208,65,189,230,178,110,62,107,144,152,60,133,145,35,190,156,78,145,62,108,76,29,62,253,232,117,188,108,237,37,62,172,61,209,189,84,177,138,189,240,184,141,189,154,155,113,190,18,74,57,190,165,17,204,191,133,33,108,190,68,59,96,62,210,53,230,61,143,167,88,189,166,87,223,61,18,166,59,62,54,231,251,190,217,54,158,60,228,142,169,61,193,129,40,62,154,186,43,189,146,110,148,61,5,53,8,62,33,88,202,190,52,143,204,190,241,73,184,189,134,62,63,190,179,228,49,189,229,224,164,189,245,244,28,62,77,119,225,188,129,208,123,60,171,143,83,62,188,147,37,190,160,214,43,61,232,41,9,62,7,145,200,188,79,80,140,189,174,243,147,61,142,189,171,61,139,73,11,62,72,254,136,191,165,0,204,61,128,33,17,62,213,180,144,189,3,57,221,190,214,250,8,62,163,205,149,62,98,111,195,190,34,114,194,61,59,4,147,189,74,58,48,62,198,71,192,188,143,94,202,191,236,85,6,192,22,26,2,191,191,105,202,191,134,127,158,191,151,18,109,191,247,81,117,192,81,218,5,192,99,172,221,191,199,239,147,191,93,59,7,192,47,112,23,191,157,253,83,192,228,216,121,192,241,179,144,191,229,74,136,191,58,206,134,192,59,226,72,192,106,70,63,192,35,59,192,191,144,140,30,191,105,97,178,191,131,130,83,191,52,122,229,191,108,212,115,191,1,133,82,192,165,91,56,191,180,65,173,191,156,22,125,191,97,197,50,191,44,229,59,192,18,178,133,191,158,145,212,191,43,33,0,192,169,238,132,190,13,29,188,191,190,130,198,191,227,119,147,191,185,18,129,192,112,8,16,192,51,190,220,191,128,41,146,191,255,173,28,192,176,245,133,191,199,98,89,192,233,124,123,192,168,144,161,191,144,239,99,191,19,75,127,192,38,20,80,192,219,73,75,192,208,206,144,191,141,181,228,190,158,68,166,191,218,128,128,191,28,95,232,191,125,140,105,191,194,31,69,192,112,133,18,191,26,214,214,191,5,211,42,191,155,237,38,191,193,192,55,192,55,198,107,191,93,10,31,62,133,31,53,188,110,139,70,190,228,201,25,61,1,245,42,62,226,193,98,190,127,52,145,190,156,230,58,62,1,195,87,190,178,2,211,60,142,184,96,60,1,24,4,190,116,127,9,190,104,171,244,189,20,221,110,61,156,49,78,190,56,238,208,61,251,232,161,188,23,53,147,61,57,186,40,62,17,217,115,191,71,174,193,60,38,84,140,189,22,251,16,190,229,6,163,190,136,61,41,62,126,52,84,190,76,51,154,188,85,27,193,189,47,134,168,61,247,231,13,62,4,133,114,62,24,255,147,188,226,83,213,61,147,218,17,190,208,79,73,62,80,169,108,189,96,103,208,190,147,133,87,190,40,213,81,61,43,142,17,190,52,8,246,190,208,216,41,61,230,13,165,190,57,21,187,61,77,232,78,188,22,73,128,61,38,17,183,190,160,186,14,62,25,203,132,61,53,140,86,61,95,91,132,190,49,30,88,191,42,49,14,62,64,88,103,62,161,235,35,190,86,62,139,190,60,214,172,61,109,187,171,189,29,189,184,188,62,159,159,190,126,84,167,189,16,238,145,61,22,197,148,61,226,80,191,191,128,1,238,191,49,137,46,191,164,242,211,191,140,97,156,191,178,193,30,191,220,198,133,192,225,99,11,192,100,161,192,191,27,50,161,191,217,12,20,192,239,75,85,191,64,178,37,192,189,146,134,192,28,153,164,191,193,94,95,191,253,199,128,192,219,147,70,192,98,32,50,192,119,54,166,191,64,201,15,191,216,147,195,191,237,191,44,191,94,20,244,191,54,231,41,191,214,55,77,192,240,69,161,190,53,224,228,191,231,18,13,191,208,164,57,191,120,141,105,192,224,150,17,191,26,87,225,191,147,81,232,191,201,118,36,191,54,209,201,191,71,223,211,191,191,203,165,191,205,12,131,192,221,109,12,192,72,39,214,191,147,17,143,191,208,80,19,192,115,248,65,191,169,130,101,192,108,48,125,192,200,33,133,191,199,31,104,191,135,79,128,192,171,98,83,192,7,116,72,192,194,93,199,191,192,139,72,190,125,74,154,191,114,78,131,191,75,123,2,192,172,133,135,191,214,192,59,192,149,203,252,190,251,220,165,191,103,72,132,191,167,210,132,191,237,77,69,192,84,58,86,191,77,121,162,191,174,93,4,192,56,167,133,190,74,207,0,192,172,171,176,191,232,82,98,191,217,167,126,192,106,142,5,192,90,118,210,191,78,22,128,191,60,121,4,192,9,91,128,191,46,214,50,192,190,59,129,192,21,180,144,191,43,66,70,191,91,149,118,192,138,214,72,192,21,240,52,192,62,72,158,191,221,4,53,191,210,161,156,191,24,127,106,191,100,19,218,191,35,148,80,191,88,118,52,192,194,102,189,190,235,1,237,191,95,131,94,191,36,246,101,191,213,198,73,192,13,129,125,191,146,239,232,191,40,196,11,192,223,216,26,191,130,39,190,191,98,15,176,191,23,161,115,191,239,48,132,192,87,9,19,192,72,173,225,191,57,66,121,191,22,8,13,192,71,44,136,191,122,216,73,192,41,133,100,192,48,192,164,191,247,137,56,191,235,91,128,192,53,210,71,192,86,43,60,192,182,112,169,191,158,20,219,190,214,4,144,191,218,6,44,191,140,142,247,191,128,198,64,191,224,204,71,192,48,249,168,190,94,166,205,191,181,89,67,191,194,91,79,191,150,36,101,192,181,22,109,191,155,148,163,191,59,18,253,191,253,53,27,191,171,193,208,191,253,102,173,191,37,184,153,191,226,43,113,192,181,26,8,192,17,184,222,191,22,104,81,191,225,160,12,192,38,42,131,191,11,86,72,192,119,150,118,192,31,62,152,191,72,213,127,191,22,126,136,192,151,217,65,192,75,97,37,192,64,229,210,191,74,166,53,191,181,208,198,191,117,164,60,191,131,51,237,191,226,190,78,191,120,135,44,192,179,109,133,190,23,100,239,191,170,128,66,191,209,31,102,191,66,151,103,192,78,13,85,191,206,4,225,191,226,85,250,191,112,98,150,190,76,81,170,191,143,129,191,191,169,244,133,191,149,31,131,192,115,225,5,192,20,97,188,191,169,255,163,191,66,155,19,192,119,252,74,191,77,117,53,192,110,68,109,192,243,229,168,191,64,111,82,191,68,208,130,192,150,72,76,192,193,182,50,192,65,108,151,191,69,187,160,190,79,199,174,191,4,220,51,191,77,84,227,191,168,23,223,190,186,244,50,192,4,150,1,191,161,64,168,191,251,70,33,191,101,22,27,191,56,17,89,192,100,89,74,191,43,15,216,190,28,76,245,61,82,30,178,61,45,182,65,190,48,51,51,61,107,117,219,191,54,13,185,61,36,236,62,62,203,239,21,190,34,59,121,190,203,152,7,60,137,91,53,191,253,139,116,190,136,54,131,190,199,103,81,190,67,113,208,59,178,223,241,61,69,148,132,61,66,249,182,186,239,227,17,62,158,231,180,192,202,159,119,190,101,68,83,62,188,172,136,190,251,162,178,190,136,20,191,61,51,236,112,62,156,4,129,189,69,198,170,61,155,16,39,62,150,38,50,62,42,47,125,62,130,101,255,255,4,0,0,0,128,0,0,0,0,0,0,0,0,0,0,0,0,0,0,0,0,0,0,0,0,0,0,0,0,0,0,0,0,0,0,0,0,0,0,0,0,0,0,0,0,0,0,0,0,0,0,0,0,0,0,0,0,0,0,0,0,0,0,0,0,0,0,0,0,0,0,0,0,0,0,0,0,0,0,0,0,0,0,0,0,0,0,0,0,0,0,0,0,0,0,0,0,0,0,0,0,0,0,0,0,0,0,0,0,0,0,0,0,0,0,0,0,0,0,0,0,0,0,0,0,0,0,0,0,0,0,0,0,0,0,0,14,102,255,255,4,0,0,0,0,24,0,0,104,41,130,190,131,227,131,61,94,170,10,190,32,169,186,63,83,164,58,189,185,77,66,63,98,195,144,189,157,9,163,187,235,116,161,60,191,58,138,63,121,228,146,61,42,244,19,63,236,183,47,188,199,253,54,189,91,159,158,61,149,185,148,62,122,64,27,62,48,125,174,62,87,61,150,61,37,29,1,62,124,240,141,61,182,216,129,190,199,161,152,62,175,124,93,62,154,176,215,60,163,74,200,189,156,79,176,61,180,56,94,191,23,209,249,61,123,200,143,61,206,235,17,60,10,2,117,188,245,162,16,62,153,141,162,191,131,11,20,62,111,53,221,189,115,102,79,62,185,3,218,187,197,96,41,190,147,1,187,191,93,201,131,62,238,65,7,61,1,240,219,61,36,147,171,60,252,81,26,190,169,152,178,191,254,161,3,63,244,23,157,61,104,189,247,189,153,118,26,61,101,186,46,190,47,163,136,63,4,68,161,191,59,17,39,191,156,101,43,190,234,8,72,189,18,211,166,188,32,129,25,63,193,173,110,191,36,99,229,190,231,95,245,189,149,47,186,61,25,103,8,62,211,49,207,62,211,129,4,191,231,253,60,190,109,152,175,188,56,132,208,189,231,249,187,189,208,94,95,62,241,187,175,190,247,228,79,190,144,164,101,61,249,156,114,60,129,185,133,188,154,241,91,61,228,70,157,60,58,206,188,188,7,38,131,61,220,119,47,189,35,133,255,61,237,145,138,189,16,125,233,189,53,42,89,62,81,192,22,62,72,111,118,190,42,97,17,61,61,123,31,190,195,54,96,190,60,1,129,62,19,120,221,60,43,81,209,190,23,54,193,59,124,30,156,189,30,3,134,190,98,183,185,62,227,241,155,190,185,70,204,189,55,236,63,189,124,234,169,189,74,187,120,63,186,8,11,190,93,194,129,190,210,106,75,190,130,202,76,189,109,215,22,190,40,99,49,63,143,168,69,61,50,37,64,190,201,218,53,190,38,68,11,189,74,131,102,61,20,44,4,63,236,1,253,189,179,139,142,187,164,96,57,190,144,158,102,190,194,173,55,62,102,170,196,62,240,90,131,61,200,226,157,189,91,165,52,61,115,223,160,190,214,44,47,61,92,45,182,62,41,105,72,61,194,68,122,60,237,25,118,61,217,46,182,190,43,63,131,189,196,93,230,62,6,160,248,187,133,20,145,188,125,241,7,190,169,247,206,190,248,192,151,190,152,195,44,63,65,215,138,190,243,74,118,190,51,65,132,61,69,209,107,190,67,26,160,190,45,58,66,63,158,104,2,191,144,237,151,190,20,87,169,62,5,18,17,62,14,194,252,189,215,25,131,63,233,51,190,191,145,223,50,189,168,163,27,59,64,80,37,62,172,128,167,190,194,68,88,63,90,178,154,191,209,163,62,62,26,222,176,59,202,115,6,62,68,78,49,190,49,154,28,63,127,116,124,191,242,65,63,62,29,166,247,59,1,184,154,61,227,149,197,61,104,137,133,62,232,47,196,190,217,137,124,62,95,233,25,190,63,213,108,189,125,29,224,62,116,48,76,190,252,163,152,189,163,79,163,62,19,141,62,190,118,153,188,189,18,8,31,63,194,223,234,190,26,143,214,62,115,136,230,62,38,157,36,190,67,176,46,190,61,216,199,62,87,85,61,191,184,13,142,63,130,31,58,63,61,42,155,190,27,166,25,190,172,3,16,190,27,30,98,191,46,253,184,63,107,250,245,62,58,176,81,188,72,72,13,191,172,246,229,62,25,31,189,190,8,55,4,191,163,96,195,62,238,113,178,189,229,121,169,190,96,98,43,61,130,139,215,190,160,44,163,190,181,6,199,62,172,216,1,61,139,250,218,189,129,59,21,61,66,236,11,191,1,51,63,190,92,130,161,62,132,250,66,190,95,80,55,190,119,135,71,62,166,3,194,190,214,193,118,62,1,223,197,61,111,73,82,190,251,1,84,190,16,180,107,62,203,11,76,188,99,186,183,62,48,162,219,183,126,93,183,189,26,70,141,190,109,8,25,188,223,158,251,188,169,210,82,63,209,233,212,189,165,53,216,61,197,183,200,190,44,154,43,189,58,200,203,62,239,31,127,63,154,235,100,190,47,142,82,62,245,175,9,191,170,175,96,62,76,248,21,63,41,253,182,63,27,202,64,63,227,77,205,190,255,169,239,189,17,144,6,63,178,233,233,62,24,146,162,61,93,176,254,62,48,100,6,190,68,154,216,188,242,120,105,62,100,123,104,62,238,27,219,61,69,172,34,62,98,237,116,61,153,52,64,61,209,153,135,190,96,207,203,189,158,51,150,62,236,65,67,188,170,37,51,189,63,35,193,188,71,134,203,190,62,25,45,190,62,64,142,62,200,214,138,188,133,35,111,61,225,0,138,60,148,164,194,190,236,129,148,190,191,30,92,62,4,199,89,189,250,171,139,61,65,179,58,61,37,6,25,190,173,104,113,190,192,29,134,62,250,161,157,190,92,193,129,61,225,72,83,188,224,5,208,60,45,251,138,190,107,88,89,189,154,53,93,191,73,204,150,62,183,170,105,189,139,221,51,63,71,145,12,190,160,210,87,190,7,148,177,59,77,24,226,190,38,221,117,188,235,86,92,191,194,162,20,190,87,65,75,190,93,140,223,60,124,196,144,190,227,247,35,62,45,80,225,190,153,194,100,190,56,188,169,189,219,136,246,189,105,60,126,62,30,233,128,190,124,54,44,63,14,203,58,189,36,173,43,62,33,17,20,190,45,4,2,63,88,60,139,190,170,36,130,63,153,64,149,60,220,218,94,62,178,74,129,62,190,22,43,63,232,104,151,62,76,134,155,62,122,133,52,62,119,164,140,62,83,118,132,62,40,140,123,62,88,187,157,62,99,115,253,190,151,21,48,62,61,190,137,61,115,54,167,189,35,159,223,190,3,200,54,186,5,198,14,191,37,115,138,189,219,103,16,189,162,108,70,190,252,118,1,191,37,162,137,190,74,13,114,62,227,61,237,189,108,218,165,190,198,179,2,190,24,25,89,190,46,164,211,190,196,238,22,191,227,85,114,190,167,227,169,63,249,172,180,189,95,214,59,188,1,174,179,190,75,86,240,190,204,79,137,190,147,10,137,63,113,144,105,188,9,159,107,189,148,73,37,190,188,62,149,190,160,100,49,190,0,39,84,63,6,29,233,61,40,145,248,188,52,12,6,190,142,168,65,190,198,167,7,189,102,225,33,63,32,170,252,61,224,134,55,62,80,235,80,189,165,165,240,189,25,88,194,190,17,226,146,62,80,83,89,62,252,111,220,189,183,126,123,190,9,77,26,188,155,68,216,190,28,195,167,61,80,48,189,62,101,112,53,190,135,114,205,188,248,23,191,62,188,251,10,191,70,124,174,190,255,90,34,63,37,211,9,189,97,184,114,62,55,137,213,62,188,80,38,191,135,118,4,191,138,162,60,63,159,189,62,190,141,39,54,189,243,51,255,61,65,80,78,63,210,232,104,63,153,242,189,62,84,245,89,188,203,138,30,190,206,242,225,190,55,99,19,63,112,3,27,63,67,130,1,62,35,58,246,188,132,230,229,189,100,170,4,191,253,101,223,62,208,114,186,62,241,220,171,61,222,253,250,61,53,36,169,188,192,138,167,190,167,104,178,62,193,152,244,61,88,93,8,190,3,183,67,62,126,5,19,188,173,37,210,189,100,186,231,61,205,105,138,60,249,182,165,61,144,36,18,62,242,231,193,61,133,63,139,62,190,78,100,61,248,233,135,189,198,196,50,63,145,8,8,61,169,16,143,189,95,27,221,62,159,201,151,190,92,179,241,189,226,136,110,63,119,50,183,188,41,217,53,188,210,60,115,62,163,131,30,191,208,233,233,190,60,90,10,60,119,13,179,62,8,0,110,62,173,185,240,188,80,74,31,63,221,158,142,62,3,182,159,61,56,26,203,62,151,255,147,188,170,233,124,61,160,178,138,62,114,194,160,62,228,192,48,62,65,77,9,62,34,11,177,188,158,46,27,190,138,64,46,62,196,222,75,62,218,218,15,62,230,12,209,61,212,108,206,189,14,19,241,189,42,197,156,62,158,112,99,59,44,88,214,61,93,57,151,189,160,188,39,190,228,111,152,60,84,101,196,62,100,73,213,189,120,115,56,61,248,53,87,190,186,36,151,189,239,64,139,62,254,69,238,62,241,160,250,189,190,65,49,190,88,148,34,190,184,127,83,61,163,71,193,62,47,82,57,63,149,248,184,190,143,190,5,190,198,220,119,189,3,79,194,189,12,10,235,62,19,163,4,63,242,39,3,191,190,231,157,62,222,17,60,189,71,6,65,62,203,160,173,189,143,57,213,62,10,13,193,191,82,170,126,62,106,130,168,189,173,236,225,61,244,181,243,61,111,44,82,62,103,93,140,191,253,88,225,61,20,115,0,190,53,127,188,189,84,169,95,61,188,184,110,62,33,230,57,191,246,209,41,62,217,94,25,190,196,129,128,61,129,20,134,61,75,105,144,61,229,37,3,190,117,170,102,59,15,165,10,189,22,86,156,61,24,56,180,61,163,28,142,62,224,238,55,62,90,152,167,61,4,120,41,190,32,74,54,62,70,249,155,190,230,194,204,62,113,2,18,63,70,157,208,187,7,61,53,190,102,58,15,62,23,73,89,190,151,177,226,62,154,206,163,63,203,181,6,61,62,156,2,190,200,93,123,62,225,65,216,190,206,253,69,63,166,121,238,63,129,93,99,60,99,148,163,62,207,225,172,62,254,38,217,62,148,132,110,63,212,32,131,191,31,166,1,62,113,120,132,61,183,136,66,62,255,162,227,61,84,98,49,63,109,180,62,191,246,151,129,62,100,197,74,189,239,86,47,61,83,140,95,188,179,164,230,62,97,25,29,191,198,249,121,62,19,154,33,62,159,147,214,189,249,225,194,61,92,156,160,62,15,184,207,190,222,44,130,62,34,252,17,190,213,40,101,190,34,201,3,62,71,192,68,62,153,77,251,190,215,80,28,61,213,78,122,190,74,1,72,190,47,78,105,62,86,179,220,62,63,125,191,190,230,100,30,189,155,216,166,190,58,46,49,190,190,49,134,59,34,224,6,63,224,237,221,190,87,56,20,62,252,243,151,190,232,32,141,189,132,143,154,61,47,171,43,63,131,179,143,190,92,235,105,62,150,158,46,190,25,234,12,188,72,254,154,61,28,171,225,190,76,242,177,62,71,93,49,62,39,234,115,190,246,221,142,61,34,56,207,190,113,21,11,190,188,169,132,62,51,52,198,61,48,62,103,189,107,28,124,62,178,204,102,190,32,79,213,61,122,7,86,62,51,18,7,60,241,113,120,62,18,239,152,62,110,5,194,61,238,202,172,61,25,79,22,62,212,243,88,61,78,142,234,61,195,175,83,62,147,184,233,62,175,203,67,61,243,134,166,188,195,229,236,189,241,222,15,188,120,110,136,61,167,201,171,62,12,130,40,62,6,29,74,190,182,81,14,62,1,220,23,61,204,37,69,189,17,225,151,62,10,1,188,61,142,121,47,191,169,138,106,62,137,248,27,190,221,95,182,61,221,169,130,62,211,83,8,62,169,245,122,191,181,233,37,190,59,95,11,190,64,164,170,62,151,223,55,62,2,115,124,190,16,252,152,62,239,13,220,188,47,176,221,187,95,118,210,62,182,14,40,188,70,117,192,61,194,28,226,61,213,179,6,190,205,134,21,62,215,206,104,62,5,215,42,62,107,187,52,60,9,193,98,61,174,189,130,187,187,141,13,62,15,134,108,61,148,191,13,62,185,149,60,62,96,136,68,62,173,17,168,189,148,88,133,189,186,160,128,60,193,117,234,186,191,79,213,61,184,116,154,62,83,49,247,61,110,151,104,190,85,15,17,59,35,60,70,62,210,135,218,61,110,138,52,62,204,2,5,62,66,31,100,189,75,129,132,189,83,125,45,189,204,75,154,62,87,87,127,62,74,240,158,62,22,169,51,190,146,41,240,189,135,212,214,190,132,173,14,63,171,221,25,63,41,135,74,61,60,201,56,189,176,117,132,190,252,152,157,63,191,134,69,190,23,97,204,189,5,131,222,60,242,88,54,190,216,161,128,190,188,202,223,62,154,239,17,190,101,12,96,190,146,158,2,62,25,3,115,190,45,207,80,190,112,68,61,190,93,178,126,190,146,78,91,190,180,133,222,189,230,138,35,190,74,15,127,189,16,135,66,190,242,118,138,189,134,212,199,190,125,123,114,189,146,160,177,189,92,48,120,61,223,140,139,190,128,20,164,61,31,10,201,190,141,185,190,188,193,196,144,189,194,125,160,189,160,68,150,190,138,67,7,61,201,241,110,190,251,87,87,190,199,42,71,61,168,85,86,62,132,189,102,61,249,185,178,62,36,239,2,191,59,209,22,190,106,16,28,62,58,195,35,62,95,202,113,62,110,82,7,63,51,2,17,191,140,184,219,189,50,0,4,190,3,8,164,62,113,131,50,191,192,8,140,61,38,12,151,190,54,41,122,190,116,9,157,188,153,98,98,62,45,209,38,191,141,184,25,62,224,111,157,190,199,63,169,189,29,70,186,189,146,167,211,61,230,90,166,190,187,151,123,188,189,102,218,190,224,211,80,61,77,66,89,188,209,160,181,189,228,232,113,190,157,251,45,190,128,25,130,190,232,237,215,60,139,230,135,188,240,241,165,189,215,227,15,190,220,33,78,190,222,27,175,190,214,58,221,61,10,52,215,61,118,39,162,189,107,15,183,61,217,212,14,191,145,166,226,190,218,164,10,61,183,168,172,61,221,188,92,190,100,16,11,61,207,148,45,191,142,102,221,190,87,98,132,62,163,159,74,61,16,122,125,190,75,88,25,62,213,41,144,191,130,230,196,190,144,216,9,191,207,150,221,189,104,221,131,62,122,37,76,62,89,241,158,63,47,83,33,190,56,22,121,190,101,58,69,190,154,185,144,62,120,37,219,61,99,84,64,63,26,236,144,60,140,62,84,62,10,81,144,59,50,12,42,62,20,208,55,62,226,124,216,62,35,72,57,62,64,86,65,62,231,93,30,190,107,200,30,62,222,144,61,62,114,209,82,62,105,132,115,62,248,67,173,62,126,88,195,189,6,85,59,190,110,204,198,62,235,215,78,190,216,8,156,62,187,191,134,62,182,153,139,62,56,129,140,190,12,122,42,63,104,134,114,190,97,66,86,62,76,62,38,61,210,92,243,60,27,41,169,190,43,202,12,63,224,45,169,190,171,20,66,62,80,113,204,55,3,153,176,61,17,2,197,190,151,9,240,62,5,115,83,191,54,61,132,189,51,226,33,190,57,1,5,191,112,241,157,61,105,198,22,63,168,206,120,63,85,138,143,62,201,228,31,189,72,217,165,190,211,194,218,189,42,18,250,62,180,105,1,63,146,148,104,62,163,163,58,190,245,141,166,190,3,202,43,190,71,62,185,62,244,32,189,62,16,92,186,61,67,92,0,190,147,210,7,190,119,232,218,60,109,137,145,62,11,83,71,62,56,179,119,189,222,250,128,190,215,90,46,190,113,221,117,190,147,68,106,62,137,12,238,60,111,148,143,61,233,1,243,189,223,10,162,190,202,121,178,189,179,236,5,190,192,159,139,190,50,165,231,60,171,208,192,190,20,74,57,190,158,7,41,190,205,218,166,190,205,186,250,190,76,15,27,190,208,227,74,190,106,53,180,190,48,92,234,190,73,62,222,190,41,221,30,191,95,54,169,190,100,145,144,61,123,26,168,190,111,163,99,62,53,71,213,188,63,154,3,190,55,39,214,190,243,48,147,62,70,112,147,190,251,75,198,190,52,130,148,62,25,138,165,190,170,131,66,190,180,225,160,60,65,82,190,62,91,14,29,191,227,96,161,62,32,89,171,189,232,145,230,188,186,134,232,189,239,53,128,62,22,14,188,190,22,205,109,62,110,40,77,61,216,222,155,61,253,63,21,190,135,46,168,190,226,132,181,190,103,159,24,62,222,115,0,190,10,206,200,62,9,24,71,190,215,235,46,190,176,206,210,190,149,122,158,189,95,14,19,190,143,78,133,62,218,106,213,187,32,152,5,190,13,180,254,190,240,34,154,60,244,122,57,60,65,48,135,62,85,253,41,190,72,211,94,188,180,106,193,189,233,168,97,61,244,240,185,61,123,211,225,62,0,52,88,62,217,12,214,61,139,85,193,190,113,95,235,190,86,33,78,62,56,117,212,190,128,10,160,62,194,247,155,62,124,44,243,190,17,138,195,190,66,168,94,62,190,28,198,190,46,203,143,62,87,48,142,62,228,37,236,190,233,227,153,190,6,155,40,62,33,159,118,190,18,33,161,62,17,43,113,62,242,140,157,190,188,152,43,190,42,34,132,62,168,79,80,190,236,136,167,61,0,63,154,61,231,73,186,189,37,240,212,190,63,229,134,62,240,235,117,60,120,176,70,190,65,92,176,188,184,185,46,61,169,120,129,190,78,241,161,61,236,199,135,62,52,211,93,190,211,188,208,189,167,20,7,190,29,251,118,62,172,8,34,189,176,190,190,62,152,236,123,61,51,8,89,189,102,126,243,189,165,74,228,62,141,168,237,190,81,133,47,63,232,189,57,191,120,140,105,62,121,202,65,62,188,67,160,61,95,214,133,191,112,212,77,60,254,198,15,191,223,238,65,189,62,199,155,190,236,14,36,62,171,114,64,191,248,154,75,189,4,201,222,189,210,239,183,190,0,16,177,190,209,24,195,189,230,239,136,190,97,235,72,190,162,180,205,62,232,55,84,190,147,53,124,190,242,70,128,190,83,199,81,62,159,103,84,190,142,179,174,62,124,198,226,61,241,57,15,62,48,9,68,61,48,92,215,62,48,96,10,61,234,207,211,62,59,190,42,62,3,214,175,62,53,47,189,61,137,111,3,63,60,167,113,61,95,31,145,62,105,224,216,61,73,222,231,61,174,144,201,187,232,155,38,63,70,238,200,186,11,106,176,60,180,183,223,187,115,32,10,62,244,23,82,190,128,84,4,63,1,195,60,189,126,106,145,189,50,20,79,189,245,66,143,190,130,252,206,190,114,212,35,191,52,187,146,190,214,75,25,190,229,222,6,61,191,164,165,190,72,90,7,190,146,123,238,190,195,87,87,190,113,85,213,61,227,150,113,61,44,131,6,190,193,82,52,190,249,249,231,190,223,61,24,190,253,6,237,61,93,236,181,61,185,217,222,61,111,120,137,190,154,49,228,190,27,191,185,189,27,71,89,190,218,123,65,190,251,109,44,190,33,226,95,190,168,59,206,190,179,210,40,61,52,28,135,61,223,136,36,62,14,79,240,189,17,207,185,189,52,221,209,190,18,75,252,60,34,36,19,61,21,150,137,62,0,94,148,188,222,118,159,190,237,255,231,190,225,179,134,62,67,222,218,59,134,128,130,62,39,105,209,61,198,87,188,190,193,205,60,191,16,105,98,62,196,217,150,190,92,53,45,190,2,182,54,190,151,57,148,63,235,111,113,63,15,249,30,63,113,205,141,190,11,41,59,191,9,147,136,190,180,251,93,63,87,168,19,63,88,65,171,62,2,245,179,60,68,148,143,191,191,238,164,189,59,118,193,62,108,73,201,62,14,238,95,62,72,168,193,61,100,54,17,191,78,26,49,190,224,154,133,189,58,168,159,62,100,226,51,190,128,216,95,61,245,104,51,59,250,32,45,61,113,20,225,189,17,112,29,62,39,27,92,190,198,250,122,189,81,197,206,61,18,18,123,189,151,62,28,191,103,31,141,62,3,139,147,190,228,204,23,61,125,199,178,60,26,43,95,190,169,1,100,191,183,65,160,60,64,3,134,190,186,245,5,190,75,106,130,62,75,74,89,190,237,121,121,191,249,204,204,188,71,197,39,191,41,168,79,190,228,227,167,189,207,83,141,190,222,107,171,190,42,255,229,187,106,100,102,63,229,89,191,60,102,116,128,189,104,91,213,189,165,150,3,60,95,168,145,189,113,151,247,62,212,250,170,189,147,231,45,62,1,211,134,61,155,95,151,61,255,74,1,62,9,122,209,62,137,140,145,60,134,193,66,189,243,150,55,190,84,43,196,60,206,65,148,189,51,217,32,62,86,227,186,60,204,61,216,61,148,244,117,61,184,70,176,189,10,194,229,60,115,249,129,61,180,7,130,189,56,183,239,188,173,22,19,190,184,28,181,61,0,224,212,61,98,186,43,190,152,201,72,189,3,80,83,61,220,132,236,61,231,224,30,62,205,9,201,189,191,200,102,190,75,46,134,189,113,195,168,189,229,236,51,61,239,98,251,62,181,215,136,190,234,59,205,189,53,130,161,188,130,145,192,190,240,40,58,62,169,249,30,63,115,153,146,191,150,44,90,62,0,80,95,190,197,207,171,190,11,155,75,62,16,115,189,62,13,96,111,191,228,15,186,62,189,151,39,61,165,51,109,190,35,9,7,62,244,36,91,62,116,48,128,191,18,146,36,62,169,121,2,60,168,214,243,190,228,104,137,61,13,193,164,61,13,116,109,191,171,54,157,60,6,39,241,188,2,235,91,190,205,118,34,62,17,137,158,190,116,253,92,191,226,239,55,190,121,167,155,188,250,187,197,190,101,88,31,62,66,102,2,191,130,107,94,191,211,20,182,190,31,161,107,190,127,93,104,190,186,57,20,189,137,247,100,191,134,55,106,191,10,3,201,190,233,116,17,190,11,210,229,188,12,6,243,61,108,196,178,191,136,243,108,191,166,209,3,191,228,18,84,189,132,39,89,189,94,112,95,190,236,171,42,63,200,53,95,63,162,29,35,191,191,112,126,61,126,200,28,189,10,107,190,190,187,121,1,63,217,103,102,63,167,228,0,191,249,41,135,188,91,160,47,62,22,157,45,189,151,48,148,62,179,94,68,63,39,160,129,190,129,3,105,188,35,85,38,60,116,240,74,189,192,108,199,61,120,201,99,63,233,81,68,190,9,204,129,59,5,239,136,58,60,33,43,62,200,19,42,189,59,36,117,63,211,97,219,189,204,75,122,189,171,235,8,189,218,183,123,61,35,192,189,61,195,48,130,63,91,19,2,62,119,201,173,188,185,226,150,189,217,132,253,61,131,19,217,62,175,81,112,63,62,53,186,188,213,241,225,61,94,247,33,188,244,75,173,62,229,161,39,63,180,62,163,63,83,213,163,61,10,54,147,62,34,102,193,190,163,49,188,61,177,157,41,63,181,249,75,191,246,192,90,191,205,193,179,62,45,37,138,190,153,179,255,61,84,89,221,62,12,230,33,191,92,81,252,190,111,91,175,62,62,117,76,60,65,149,176,61,216,131,161,62,125,225,5,191,168,166,205,190,249,224,39,62,225,156,24,190,223,42,82,62,151,111,134,61,35,252,226,190,116,153,134,187,96,28,145,189,102,54,11,190,20,20,138,62,88,203,160,61,251,83,217,190,191,105,147,62,114,249,171,189,52,93,191,188,110,152,14,62,132,183,198,189,248,177,153,190,93,56,137,62,40,75,142,190,13,68,99,189,38,236,126,62,2,65,232,189,133,75,119,58,133,131,2,63,77,133,52,190,244,198,9,190,37,24,129,62,102,35,4,190,214,28,34,62,63,219,16,63,232,101,83,189,65,41,114,190,122,134,70,62,209,131,120,63,11,178,217,190,2,223,53,191,75,215,147,61,7,199,142,189,94,51,80,188,75,90,9,63,236,134,62,190,126,243,236,190,40,242,38,62,161,144,159,189,125,222,232,61,47,42,107,62,215,37,62,60,83,82,33,190,203,116,160,188,68,173,112,189,76,79,16,62,93,182,107,62,249,237,131,61,13,37,58,61,213,114,54,61,130,215,239,189,198,91,42,62,182,10,157,61,168,88,219,62,114,81,41,62,42,215,215,189,135,19,244,60,145,111,255,61,44,173,47,61,193,47,38,63,202,137,12,63,19,30,52,190,166,228,83,190,150,36,41,62,12,57,179,187,184,218,117,63,253,15,22,63,186,206,86,190,115,180,181,190,154,155,11,62,43,111,236,190,76,84,155,63,149,3,74,63,174,16,85,61,232,140,187,61,125,177,234,188,10,65,235,59,163,197,145,188,35,183,225,190,70,81,159,188,254,218,139,60,32,54,76,60,131,182,232,61,223,143,18,190,120,66,114,190,232,93,146,189,30,203,176,59,68,149,130,189,88,6,152,189,111,193,143,189,6,153,136,190,26,78,140,60,75,186,142,189,136,66,49,189,252,56,0,60,49,217,51,188,170,189,6,62,139,134,163,189,93,196,182,189,147,9,37,189,71,9,3,62,141,46,144,189,131,59,143,62,162,144,0,190,155,70,53,189,189,158,57,189,201,71,204,61,111,108,7,190,81,243,44,63,24,156,125,189,249,125,79,190,64,202,154,189,189,8,76,60,92,125,137,62,133,240,114,63,171,22,89,190,132,173,134,189,232,67,30,190,106,88,30,61,220,128,128,61,222,8,172,63,133,44,223,190,204,166,118,189,72,237,57,190,15,69,169,190,234,62,229,190,223,9,56,63,1,199,43,190,124,125,19,62,191,18,30,61,168,247,243,189,22,205,134,190,24,62,216,62,219,92,77,189,119,81,241,61,203,197,18,190,178,133,129,61,75,168,129,62,54,62,16,62,119,175,100,187,65,219,89,189,41,44,66,61,174,187,235,61,46,76,148,62,223,222,184,61,183,160,35,62,205,140,199,61,18,114,248,61,79,157,78,186,5,96,129,62,198,216,142,190,37,83,11,189,139,116,23,190,137,135,154,189,81,181,130,186,10,42,135,62,137,211,166,190,118,135,157,61,100,92,88,190,21,84,135,189,106,39,102,60,90,14,93,59,249,163,31,191,124,77,46,61,94,63,172,190,121,246,79,190,250,33,56,62,164,139,138,190,165,200,24,191,36,93,112,62,136,129,80,189,143,81,27,62,33,177,103,191,198,125,219,61,92,92,67,62,183,33,97,62,130,116,54,190,16,176,8,189,161,243,197,190,29,143,228,188,173,19,43,62,57,176,83,62,185,87,3,61,93,243,27,190,22,165,142,189,95,95,232,189,137,61,205,61,129,61,209,189,36,181,2,190,37,233,53,59,130,158,33,188,135,211,63,60,72,214,159,188,155,61,157,61,176,0,73,190,181,37,43,190,59,45,65,190,66,172,110,189,24,115,50,190,82,159,81,190,145,125,144,61,149,119,72,61,217,58,141,190,227,125,102,62,216,23,253,189,130,163,118,190,224,9,200,61,95,142,20,62,12,23,18,191,236,74,5,63,180,5,36,189,99,215,115,190,16,164,75,190,142,41,28,62,51,99,88,191,235,82,58,63,76,198,19,190,141,128,152,62,159,166,175,61,176,252,157,62,112,144,46,188,172,97,103,190,234,244,66,62,89,189,129,190,83,107,232,188,116,233,247,61,154,25,161,62,20,96,250,187,141,131,238,61,155,44,137,190,95,74,164,189,235,196,242,189,130,75,10,188,81,207,183,60,181,211,38,190,87,231,77,190,136,148,196,188,124,156,20,190,24,231,161,190,246,20,0,62,45,3,116,189,16,245,250,60,162,186,148,190,65,66,79,191,9,134,168,187,7,56,221,60,253,34,237,60,179,70,106,63,132,81,2,63,71,82,59,63,94,56,12,189,120,225,201,189,127,112,161,189,157,136,42,61,145,116,3,62,143,43,12,63,29,45,224,61,115,89,203,61,113,145,200,61,62,196,7,191,45,14,177,190,3,29,19,191,2,114,219,61,103,91,50,62,174,52,19,190,26,126,255,255,4,0,0,0,0,128,0,0,67,152,129,190,81,120,187,190,241,86,150,62,254,55,210,62,96,74,56,190,199,69,5,191,127,237,149,190,82,5,18,192,218,255,196,61,37,170,170,61,240,66,196,191,95,45,41,191,27,17,158,189,58,160,144,62,76,73,193,189,151,48,157,190,107,53,180,190,51,216,174,189,117,216,142,190,214,136,38,62,177,104,182,190,109,39,32,190,152,231,185,62,82,66,176,61,100,106,169,190,212,240,15,189,22,208,216,189,198,126,199,62,225,160,162,190,224,116,9,63,36,172,105,189,248,8,90,63,3,225,220,189,9,184,18,190,17,127,65,62,201,55,227,61,17,241,158,190,184,18,176,190,169,11,41,190,72,8,154,191,161,41,133,61,77,174,245,61,167,23,222,191,5,167,175,190,15,29,137,189,24,1,13,62,111,143,205,60,6,251,29,190,243,238,8,190,114,124,175,189,2,102,148,189,81,170,10,62,77,156,173,190,253,198,13,190,24,116,60,62,133,54,206,61,84,106,76,190,44,128,142,189,201,248,107,60,49,201,98,62,120,73,105,190,22,70,166,62,249,35,93,189,16,44,70,63,188,169,149,189,30,156,220,61,148,131,156,60,241,214,192,61,55,21,33,190,20,230,239,190,88,9,42,190,41,153,120,191,214,123,236,60,249,96,57,61,78,64,166,191,26,231,188,190,210,92,143,189,64,161,35,57,131,181,190,60,136,166,33,190,44,70,115,190,94,26,197,189,213,220,130,57,165,81,189,61,92,23,168,190,213,114,188,189,47,107,196,61,47,247,72,62,204,107,226,189,146,11,108,189,52,202,193,189,14,140,166,61,210,11,6,189,46,170,122,62,86,223,161,189,103,42,101,63,23,133,37,190,159,146,143,61,240,182,131,60,63,93,75,62,55,164,102,189,157,240,87,191,246,106,125,190,80,73,65,191,108,244,182,60,92,65,106,59,153,208,153,191,29,64,23,191,127,148,176,60,55,220,184,188,229,36,251,186,247,5,95,188,149,7,1,190,147,52,197,187,250,134,193,61,97,222,9,62,7,226,124,190,24,50,163,60,122,237,131,190,117,234,2,62,42,226,189,189,89,66,9,190,84,203,101,189,164,253,151,60,112,30,194,189,232,171,149,62,241,124,13,190,126,155,22,63,167,221,247,189,3,43,218,61,227,59,53,187,255,46,144,62,98,208,153,188,43,57,137,191,145,191,146,190,180,178,92,191,192,213,67,60,162,244,200,60,80,175,194,191,233,162,229,190,77,170,138,60,214,21,161,58,138,23,203,60,27,2,232,189,186,93,32,190,28,45,56,189,166,180,218,61,123,213,114,60,157,17,129,190,108,188,83,187,142,205,212,189,63,150,38,62,4,5,89,188,3,136,36,190,141,179,89,190,252,219,128,60,250,220,177,189,202,115,56,62,59,178,24,190,40,124,0,63,238,166,1,190,244,134,14,61,65,168,101,61,36,137,37,62,73,67,153,189,62,109,101,191,155,29,22,190,10,38,95,191,242,254,227,59,47,110,56,189,81,64,208,191,126,251,56,190,190,252,87,61,100,89,215,189,73,150,231,189,117,121,21,190,231,252,40,190,126,34,182,59,52,248,52,62,60,138,59,60,116,251,173,190,212,212,92,60,162,221,71,189,201,241,19,62,17,111,133,61,157,250,39,190,182,180,225,190,70,200,7,189,142,141,47,190,131,91,151,62,231,213,221,189,57,190,9,63,122,219,25,190,89,199,67,60,209,196,236,188,125,114,248,60,226,221,176,189,102,245,33,191,228,31,106,190,32,43,146,191,236,33,87,189,171,145,44,190,136,113,220,191,177,177,53,190,182,128,241,61,201,109,83,190,142,125,46,190,252,176,129,190,47,123,3,61,37,192,184,60,80,218,119,61,39,77,196,188,89,179,211,190,33,81,129,61,234,143,38,190,84,158,103,62,100,142,2,188,113,93,99,190,80,109,76,191,122,95,168,60,153,70,81,190,232,134,130,62,184,13,216,187,66,233,184,62,229,185,38,190,125,182,65,190,173,177,238,61,19,11,199,187,72,177,72,190,173,128,119,191,73,37,226,190,20,34,9,192,120,94,112,189,180,42,37,190,119,156,246,191,51,48,71,190,82,27,170,61,109,81,228,190,133,73,119,190,197,217,156,190,239,187,209,61,36,46,75,61,121,115,145,62,57,26,197,188,46,201,4,191,155,102,147,61,249,26,46,190,22,162,155,62,81,83,195,188,74,184,125,190,137,231,133,191,104,77,197,61,94,16,33,190,198,21,153,62,192,193,210,188,201,49,248,62,230,147,44,62,126,153,231,190,93,8,132,62,251,100,0,63,82,228,87,62,77,247,192,62,204,148,204,62,186,218,53,63,245,237,184,190,133,2,105,62,140,65,50,191,71,250,138,62,145,221,220,61,62,58,16,62,243,171,152,189,114,101,28,190,213,95,220,190,196,123,90,190,193,122,214,190,154,109,107,191,237,214,37,62,27,222,21,191,231,151,37,62,145,144,135,190,249,226,97,191,81,17,244,61,199,149,25,62,223,173,9,191,154,16,246,62,169,57,5,190,228,179,128,62,190,63,221,189,46,188,197,188,42,237,241,190,233,49,51,62,19,170,159,62,112,30,138,62,80,233,211,62,191,110,202,62,114,228,15,63,253,253,139,190,70,239,21,61,101,49,189,190,160,108,26,62,122,86,35,62,118,49,80,187,92,88,119,61,93,181,238,189,196,133,154,190,31,130,190,61,182,225,152,190,180,165,89,191,44,74,61,62,184,48,216,190,106,203,56,189,69,119,141,190,24,31,9,191,53,205,92,61,4,69,194,60,185,34,160,190,90,243,75,62,64,224,19,189,252,125,96,62,162,232,89,190,16,234,84,189,229,181,197,189,0,245,225,61,76,48,199,62,27,218,63,62,203,142,197,62,212,250,185,62,31,178,162,62,58,105,144,190,194,47,198,187,249,67,182,190,247,108,172,61,85,249,184,61,107,99,89,188,170,205,59,59,221,41,30,190,241,99,186,190,96,48,187,61,152,81,156,190,172,170,15,191,98,217,194,61,64,146,177,189,240,139,243,189,246,139,7,190,80,247,241,189,7,106,43,60,140,221,253,61,221,247,254,190,85,167,170,189,135,67,31,62,187,143,222,60,85,211,165,190,116,176,215,189,167,51,97,187,41,66,245,61,193,120,100,62,167,200,1,62,56,67,205,62,75,103,162,62,213,106,208,62,233,81,135,190,20,25,0,62,82,134,152,190,108,26,2,62,4,134,110,61,6,185,86,58,169,137,119,187,51,11,52,61,5,187,132,190,107,109,87,60,135,9,129,190,226,103,230,190,237,167,90,61,232,190,222,60,87,48,128,189,253,182,149,190,233,45,223,61,209,53,37,189,251,237,141,190,105,211,0,191,111,254,66,190,37,162,237,188,157,40,125,189,101,157,0,191,73,67,214,188,254,210,32,190,87,82,158,61,82,168,115,62,189,210,225,61,252,88,173,62,117,147,155,62,136,242,147,62,89,156,7,190,134,181,181,61,20,71,132,190,140,208,26,62,191,145,39,62,146,220,158,188,230,205,187,61,33,219,210,187,159,151,159,190,168,24,5,62,97,116,170,190,107,39,7,191,214,236,110,61,194,57,185,189,229,139,129,189,208,250,173,190,30,124,171,61,25,11,83,189,121,216,77,190,64,232,212,190,13,113,178,189,174,78,171,61,131,111,38,60,209,199,246,190,65,10,170,60,143,68,114,188,251,177,222,60,227,189,85,62,44,126,65,62,221,67,59,62,171,105,132,62,13,179,123,62,102,66,134,189,23,171,16,62,75,24,1,191,30,92,5,61,168,183,119,62,131,77,205,61,63,176,194,61,234,13,2,190,62,5,7,191,126,209,158,188,111,13,231,190,179,21,41,191,86,141,196,61,126,15,107,189,183,55,55,61,224,107,228,190,75,106,8,61,212,39,113,189,160,183,239,190,4,27,234,190,39,165,171,61,93,1,40,61,223,17,67,189,144,33,215,190,91,143,71,60,136,33,186,188,9,89,25,60,208,10,234,61,55,73,98,62,206,21,187,62,190,49,128,62,139,144,55,62,188,110,30,189,104,144,65,62,66,74,23,191,185,237,43,189,157,8,84,62,25,169,241,60,69,124,77,62,64,242,157,189,7,142,31,191,71,188,204,61,255,193,207,190,208,139,27,191,124,162,27,62,156,251,2,190,146,56,8,190,128,198,14,191,139,201,251,188,209,230,192,189,147,108,32,191,171,212,1,191,19,208,181,62,52,174,140,61,27,21,5,61,172,23,197,190,233,110,4,190,171,180,171,61,77,94,20,61,206,197,65,190,79,69,4,63,203,115,20,63,134,9,102,62,220,221,35,62,87,6,218,59,171,254,10,62,57,139,89,191,231,107,160,188,43,110,213,62,128,181,137,62,70,224,140,62,188,232,73,190,160,73,62,191,10,90,29,62,62,32,241,190,7,21,28,191,138,119,60,61,83,120,222,189,117,93,59,60,124,88,40,191,113,141,8,189,146,239,188,189,108,243,15,191,136,128,52,191,188,139,173,62,153,85,63,62,84,237,169,189,100,228,105,190,106,11,146,62,24,241,7,191,31,183,33,62,54,111,91,61,71,187,235,188,132,39,147,60,163,93,155,190,97,2,200,62,24,101,187,190,104,252,44,61,59,220,158,191,18,14,42,191,140,1,0,191,180,36,209,189,26,97,105,191,226,212,211,191,115,168,48,62,69,169,203,190,155,120,80,62,225,153,35,62,140,52,231,61,43,251,55,188,112,152,224,62,18,79,146,62,204,210,189,62,215,91,46,58,94,77,120,191,126,14,73,191,195,220,155,62,240,168,168,62,152,115,113,190,112,160,23,191,99,184,8,62,213,90,249,190,47,61,165,61,238,80,130,62,108,214,61,190,161,247,162,61,232,195,168,190,239,151,230,61,243,73,135,190,91,230,172,60,53,5,113,191,107,188,67,190,29,14,58,190,99,1,40,189,254,179,242,190,111,243,129,191,10,124,13,188,108,15,148,190,20,63,111,61,247,198,232,61,65,117,190,189,90,145,155,188,81,53,87,62,84,122,56,62,221,83,54,62,130,159,129,61,157,158,49,191,138,144,38,191,216,206,171,62,89,182,41,62,78,248,18,190,120,20,17,191,176,155,243,61,45,151,226,190,146,65,77,61,52,185,16,62,251,244,196,190,88,107,118,189,90,74,140,190,216,86,79,189,243,48,200,189,182,73,200,188,242,47,214,190,97,84,182,61,142,105,202,61,241,72,86,189,189,20,157,190,30,152,174,190,133,190,50,62,65,111,173,190,244,31,199,187,33,60,40,61,147,35,174,189,85,191,188,61,156,131,135,62,56,59,252,61,44,222,19,61,202,84,198,60,68,214,178,190,16,153,2,191,13,31,64,62,37,136,162,61,242,28,92,190,76,34,19,191,234,108,18,62,225,158,3,191,19,200,33,189,97,249,34,63,49,244,16,191,67,86,73,61,250,19,117,190,138,14,238,61,76,189,105,60,84,119,141,189,134,125,226,189,58,87,2,62,233,167,187,61,79,199,21,190,26,239,124,189,130,107,237,190,245,171,195,61,216,14,172,190,91,151,126,189,226,115,17,190,72,43,125,62,211,91,175,189,0,194,221,62,75,166,240,188,40,10,147,61,127,114,145,61,35,70,57,62,243,57,137,190,65,188,66,62,227,155,43,61,246,22,93,190,201,23,70,190,216,131,16,188,134,158,24,191,206,143,47,189,60,13,197,62,181,130,22,191,209,43,235,189,144,205,43,190,137,217,40,188,121,140,15,189,242,150,76,189,79,192,165,188,89,146,94,62,58,207,11,62,156,236,144,189,63,242,44,62,1,182,5,191,151,52,16,188,147,110,112,190,221,177,34,61,219,76,135,189,64,103,80,189,199,174,95,61,103,16,153,62,241,188,118,189,219,160,170,189,75,110,3,62,198,179,252,62,220,107,157,190,26,8,46,61,188,12,151,187,162,81,102,190,235,222,188,61,152,29,1,189,65,70,251,190,250,163,161,58,25,150,247,61,28,91,4,191,250,64,102,190,214,195,0,61,91,218,226,60,40,195,41,190,168,224,53,186,162,99,169,62,48,234,22,62,143,56,93,62,83,245,79,190,173,59,115,62,128,210,253,190,144,90,217,189,1,116,105,190,43,91,234,188,70,248,171,190,130,27,71,62,224,220,86,190,203,1,39,62,71,73,243,189,196,175,245,189,41,224,82,60,172,202,206,62,102,195,154,190,170,48,34,61,215,76,125,61,203,154,178,187,131,225,123,61,2,33,5,57,248,21,126,188,120,48,224,188,75,6,167,189,181,27,51,191,54,3,141,190,122,32,28,62,110,178,207,60,1,29,142,190,153,45,1,61,218,242,40,189,110,233,90,62,170,43,118,62,60,44,136,190,78,87,136,62,219,150,17,190,97,52,62,188,188,106,197,189,153,154,155,62,17,185,220,190,51,190,189,189,140,17,167,190,211,136,90,62,222,234,53,190,140,247,157,188,50,227,187,61,193,145,147,60,165,36,94,190,229,170,190,188,172,192,30,62,45,197,217,61,168,78,244,189,99,105,212,189,158,75,68,190,114,201,147,189,153,203,131,60,85,125,52,191,107,51,234,190,0,195,30,62,128,40,92,62,169,180,13,191,67,2,167,189,88,98,12,190,143,251,180,62,64,46,25,62,101,85,138,190,190,87,150,62,215,108,103,60,151,212,69,190,176,37,200,188,27,72,185,62,239,237,55,191,71,102,81,190,231,44,18,191,45,233,129,62,254,234,21,190,209,180,115,60,157,28,249,187,94,189,11,60,22,246,72,61,88,104,179,190,174,160,138,62,169,81,173,62,167,172,24,59,243,103,203,60,209,251,27,62,181,63,129,191,35,121,32,190,254,169,211,190,138,185,122,60,185,84,209,61,10,160,175,190,248,192,131,191,109,178,246,189,175,108,25,190,67,104,208,190,34,85,2,62,64,211,228,188,93,99,78,191,179,165,243,61,229,224,190,189,172,93,23,191,81,4,132,62,166,99,120,189,72,232,179,61,6,104,188,60,214,74,17,191,109,5,117,191,143,20,6,60,140,248,15,190,100,98,161,62,224,0,140,62,194,59,21,191,106,124,56,191,244,174,152,62,65,101,107,62,103,39,250,61,1,158,227,61,10,108,41,191,163,44,223,60,168,129,181,190,98,65,55,190,248,213,17,62,246,23,193,188,240,78,63,191,58,160,84,190,255,252,242,189,63,148,175,190,180,172,74,61,94,254,174,188,204,201,129,190,118,233,156,61,67,115,138,188,200,75,128,190,191,177,108,62,241,162,82,60,217,91,161,61,114,130,106,61,230,119,83,190,129,96,54,191,166,245,40,190,156,254,187,189,187,204,226,61,49,17,10,62,143,188,237,190,17,8,153,190,163,96,33,62,203,1,177,62,232,4,175,61,183,174,149,61,130,136,66,191,169,146,178,190,201,43,123,190,38,57,107,189,151,161,218,61,220,231,128,62,24,190,11,191,49,22,140,190,86,56,222,189,63,255,134,190,181,253,114,61,230,221,15,60,229,122,143,189,152,138,21,62,63,107,26,61,72,243,130,189,169,165,118,61,79,9,39,188,27,170,238,61,117,43,114,188,127,181,6,61,77,176,147,190,215,47,10,61,68,42,179,188,110,80,237,61,68,89,238,61,233,80,154,190,52,88,254,190,136,159,115,62,57,202,128,62,32,159,197,61,46,238,6,61,75,85,23,191,227,176,143,190,189,148,229,189,165,3,219,61,255,55,197,61,131,9,166,62,187,198,161,190,41,78,227,190,31,17,198,188,161,14,36,190,147,144,252,60,242,220,70,188,91,243,236,189,104,104,162,61,228,223,55,188,10,66,134,189,149,152,75,62,107,72,70,189,28,42,172,61,224,153,49,188,207,101,181,61,241,134,186,189,236,243,182,188,238,64,160,189,125,58,231,61,100,255,6,62,53,160,219,190,243,49,213,190,210,29,79,62,71,181,101,62,33,86,75,62,50,65,141,188,194,174,247,190,121,154,137,61,124,84,136,188,84,148,12,190,184,190,235,61,17,0,59,62,99,251,106,61,243,218,206,190,185,93,202,59,116,79,8,190,137,2,170,189,63,86,155,188,191,194,199,190,25,7,181,61,62,93,170,60,145,245,128,189,134,178,25,188,40,44,18,190,123,95,163,62,46,248,117,61,252,129,247,190,156,151,51,189,43,118,101,189,162,111,61,190,2,26,31,62,46,30,143,61,191,179,185,190,120,144,153,190,215,57,170,61,223,63,249,61,166,220,47,62,191,51,214,189,160,16,119,191,60,211,51,190,70,227,80,190,44,118,216,56,188,93,77,62,26,109,148,62,234,186,186,189,127,34,128,190,17,27,23,62,160,141,157,190,149,20,107,188,238,175,65,60,3,182,73,190,183,142,134,61,83,155,55,190,12,196,136,190,78,153,45,61,133,156,121,189,247,108,221,62,170,244,153,60,222,94,224,190,241,65,26,62,255,194,105,189,57,25,49,190,236,16,14,62,226,57,141,62,62,129,42,191,209,252,23,191,115,223,199,189,66,181,238,61,158,2,15,62,168,130,129,190,109,135,180,191,238,123,109,190,132,216,218,190,198,163,224,189,219,209,237,61,202,29,90,62,109,236,171,60,174,245,132,190,72,157,159,62,69,91,54,190,103,162,221,189,15,189,135,187,6,24,224,188,187,137,225,61,127,172,134,61,126,146,219,190,127,138,192,190,192,162,232,189,19,72,170,62,206,25,248,60,83,94,239,190,157,27,15,190,30,246,112,189,128,100,43,190,48,32,137,62,85,220,101,62,216,87,124,190,179,108,230,190,244,201,49,190,110,89,55,62,245,199,81,62,82,210,149,190,163,129,247,191,110,109,147,190,156,149,78,191,43,84,32,190,122,240,96,61,24,219,110,62,144,219,1,190,219,20,64,190,181,79,189,62,103,253,72,189,90,97,158,189,39,128,5,62,43,43,161,190,39,93,82,62,170,179,26,62,41,26,17,191,247,173,62,191,207,249,77,189,251,5,23,63,168,82,179,61,113,167,78,191,162,26,127,190,36,216,46,190,22,8,21,62,249,250,252,61,177,54,156,62,55,166,35,191,183,221,115,191,0,41,158,190,186,91,5,61,229,186,183,189,91,65,204,190,247,218,36,191,147,147,123,190,224,121,220,62,215,107,101,62,10,232,60,190,228,221,112,191,130,178,243,190,191,247,79,59,57,42,35,62,110,146,197,62,203,149,154,62,72,46,236,59,137,86,138,190,211,63,135,62,16,3,187,190,227,25,133,62,93,93,154,62,132,8,175,61,203,18,116,62,249,103,104,61,133,83,23,63,176,125,65,190,181,41,103,60,238,199,2,62,122,233,45,62,72,155,116,190,217,9,71,190,209,185,54,191,36,51,25,62,40,235,16,63,82,192,43,189,223,62,149,190,38,168,232,190,174,132,102,190,47,71,149,62,55,45,37,62,185,244,153,190,179,169,29,191,99,199,188,190,49,92,136,61,187,53,49,62,217,206,176,62,46,254,218,61,18,244,65,61,230,7,48,190,193,184,68,62,141,246,232,190,30,242,50,61,127,163,134,62,92,250,128,61,97,3,93,62,85,13,153,60,96,203,149,62,124,10,23,189,246,2,215,61,101,201,90,189,106,44,38,60,194,162,104,190,185,236,77,60,42,127,235,190,219,127,64,61,231,94,61,63,121,217,136,189,81,55,176,190,216,201,222,190,207,248,5,191,77,245,106,62,224,177,114,59,15,209,171,190,160,22,212,190,231,19,156,190,36,106,52,61,250,232,107,62,222,116,138,62,208,24,195,61,82,194,126,61,251,225,72,190,113,172,237,187,216,220,3,191,35,206,2,189,26,151,103,62,128,220,243,60,11,94,166,62,92,83,227,187,219,10,11,63,87,137,138,188,50,59,4,62,18,252,117,190,83,78,0,190,155,55,149,190,121,252,152,61,206,211,2,191,100,186,150,61,7,117,49,63,112,49,170,189,53,133,39,190,32,208,198,190,126,222,214,190,53,198,126,62,175,80,226,61,156,229,149,190,69,93,185,190,85,10,81,190,124,60,175,188,102,229,72,62,207,91,215,59,126,186,58,62,49,78,118,189,54,78,111,188,77,88,66,188,16,158,202,190,68,229,91,60,83,222,213,62,235,78,55,61,47,196,58,62,201,130,138,187,200,226,222,62,209,68,37,61,72,209,234,61,167,132,160,190,218,217,209,189,30,96,130,190,186,20,142,61,41,83,187,190,126,122,136,61,22,22,119,63,201,40,131,189,229,123,148,190,151,78,150,190,23,199,144,191,89,176,152,62,133,16,67,62,177,94,171,190,75,165,40,191,30,179,120,190,227,207,188,60,250,232,209,62,44,39,167,189,183,185,84,60,199,228,35,189,220,90,227,189,236,119,223,60,184,107,25,190,11,134,153,61,15,46,92,62,155,7,172,60,255,126,16,62,48,193,55,61,241,201,4,63,96,36,28,62,113,156,46,62,236,110,198,190,85,100,114,189,49,93,97,190,185,108,213,61,244,45,205,190,100,17,30,62,127,181,91,63,74,207,30,190,199,1,160,189,236,58,208,190,158,165,186,191,84,14,75,62,191,93,92,61,175,81,204,190,4,94,106,191,32,71,111,190,151,86,91,61,90,242,234,62,19,210,53,191,169,249,53,189,71,66,14,189,237,156,194,190,5,69,150,189,208,28,98,189,203,26,151,61,98,28,110,62,143,185,233,59,202,138,201,61,66,224,15,189,239,41,5,63,39,238,43,62,46,22,5,62,113,201,167,190,131,183,41,190,222,45,113,190,220,194,211,59,70,171,145,190,102,106,129,188,215,1,91,63,174,49,180,189,202,22,74,190,12,41,232,190,72,55,204,191,55,95,76,62,36,6,243,61,181,108,13,190,172,246,161,191,117,238,148,190,174,94,120,188,208,53,205,62,251,155,74,191,58,180,140,187,255,30,175,189,155,248,242,190,146,205,138,190,56,185,186,190,162,19,46,189,90,19,175,62,42,190,2,60,120,124,106,190,200,225,249,59,226,86,5,63,245,36,1,62,156,89,61,62,205,140,16,191,178,203,41,190,57,119,43,190,248,116,170,189,1,205,98,190,122,15,171,60,116,130,133,63,140,120,86,189,174,9,104,190,246,132,233,190,142,167,214,191,236,111,136,62,20,169,107,62,90,24,177,190,201,44,234,191,175,122,188,190,76,63,185,189,118,55,50,63,161,240,140,191,134,201,8,190,253,47,161,188,113,147,53,191,230,95,219,190,187,3,146,190,253,24,140,189,28,106,235,62,8,102,78,188,112,235,167,189,188,108,69,189,52,46,2,63,31,236,1,62,216,191,147,61,83,37,114,191,59,225,141,190,174,191,131,190,206,252,25,187,169,80,22,190,240,15,48,188,173,122,123,63,100,198,36,191,240,106,232,191,100,32,29,192,223,74,142,191,247,42,221,61,26,136,85,188,46,200,1,190,205,84,150,190,19,156,168,60,15,219,137,61,51,240,194,186,201,39,33,61,192,185,26,59,194,51,101,61,166,38,191,191,177,145,17,191,184,65,202,189,81,194,3,191,158,247,175,189,113,116,236,191,44,202,7,63,1,220,190,189,59,30,9,63,197,60,105,188,72,64,14,191,160,75,147,191,120,55,3,62,20,156,104,62,81,48,136,191,173,255,27,62,140,30,66,189,30,108,37,63,82,138,166,190,145,214,185,191,103,207,2,192,44,213,14,191,92,20,11,61,58,102,200,61,189,18,55,190,48,186,48,190,134,7,93,188,123,173,160,61,251,80,235,60,179,178,121,190,55,215,207,187,154,240,156,188,245,179,117,191,102,137,213,190,101,24,149,61,11,88,70,190,159,9,114,61,96,136,198,191,51,80,248,62,41,75,141,189,232,227,214,62,222,122,35,189,144,20,203,190,8,64,39,191,254,118,238,60,120,42,45,62,34,163,60,191,124,103,19,62,103,145,43,62,240,104,67,63,140,192,241,190,214,134,171,191,221,182,191,191,49,113,243,190,178,147,53,62,0,205,61,190,77,58,218,190,76,92,17,190,54,244,186,60,110,81,1,62,63,40,50,61,1,113,69,190,252,249,176,188,206,184,200,188,154,85,110,191,66,203,196,190,106,175,143,190,89,73,90,190,197,156,112,61,93,58,132,191,235,230,0,63,222,30,15,189,121,202,22,63,173,137,154,60,30,29,131,190,208,66,68,191,213,202,179,188,131,40,0,62,26,200,38,191,157,80,110,62,54,144,161,188,162,79,43,63,135,8,1,191,155,151,130,191,157,101,185,191,253,245,76,191,166,90,70,62,196,80,0,190,203,254,137,190,32,72,196,189,68,9,155,61,163,76,124,61,16,130,152,61,51,231,39,190,13,167,4,188,206,151,147,60,247,145,82,191,81,248,51,190,183,235,102,190,64,120,149,190,27,112,26,188,163,52,136,191,141,23,23,63,190,77,166,60,179,184,139,62,208,200,191,60,244,9,139,190,210,236,82,191,161,40,80,189,135,6,217,60,209,216,198,190,18,81,167,62,125,54,10,190,189,115,214,62,159,184,15,191,137,28,236,190,8,73,169,191,95,192,49,191,243,97,177,59,135,218,42,189,23,131,201,190,21,181,15,62,186,187,111,59,134,31,142,61,107,182,65,189,245,201,187,188,196,178,151,188,2,190,218,58,107,182,7,191,232,16,19,188,178,219,163,190,130,171,21,191,147,16,62,189,45,96,133,191,134,150,15,63,255,77,45,60,86,23,55,62,54,131,138,61,177,224,36,190,252,228,196,190,131,229,102,59,245,229,137,188,183,75,57,191,195,75,162,62,126,29,21,62,152,117,28,63,145,183,180,190,6,33,200,190,56,221,204,191,154,111,5,191,59,185,17,60,176,103,222,61,47,196,149,190,167,43,108,61,126,135,63,61,235,253,37,61,122,201,136,189,119,82,49,190,199,181,34,189,182,245,81,186,96,183,92,191,20,242,220,190,184,0,172,189,239,17,57,191,94,187,229,61,244,130,60,191,5,229,10,63,224,190,213,60,141,244,36,62,26,60,139,61,49,112,42,190,76,54,85,191,220,225,73,62,112,237,7,62,126,124,147,191,137,112,153,62,135,213,197,60,61,120,48,63,252,89,33,191,251,154,120,190,139,9,250,191,79,74,33,191,160,26,38,189,86,106,20,190,62,56,136,190,111,119,146,62,125,177,138,61,164,56,140,61,196,154,3,61,130,35,10,190,166,191,225,188,13,158,26,61,226,16,90,191,97,61,234,190,28,121,48,190,150,246,69,190,244,50,138,60,74,29,121,191,146,110,58,63,69,201,61,61,16,177,196,189,230,154,231,60,72,233,183,189,96,218,132,191,111,24,65,62,26,197,161,61,9,91,219,191,128,115,191,62,243,154,43,62,60,121,19,63,135,145,36,191,254,11,13,62,126,79,42,192,103,199,124,191,70,190,11,190,169,184,88,189,53,130,143,190,146,211,170,61,226,79,49,61,250,167,158,61,86,251,67,61,241,169,219,189,65,57,205,60,108,233,208,61,105,181,67,191,139,27,46,191,116,125,104,190,226,211,38,191,52,3,37,60,69,76,141,191,48,198,255,62,136,118,185,189,244,1,45,61,252,62,62,61,238,136,137,190,200,5,234,191,249,59,134,61,163,165,146,61,64,116,20,192,47,123,187,62,75,127,160,190,158,40,254,62,61,59,189,189,97,171,1,191,194,41,129,189,189,225,178,190,107,109,227,61,186,77,156,191,107,150,179,190,235,146,20,190,150,234,143,187,32,162,128,188,241,247,175,62,88,222,190,191,0,72,176,61,202,184,94,59,11,108,162,62,173,21,163,62,105,223,212,190,227,50,169,191,202,59,133,62,173,111,108,189,1,240,16,191,7,81,20,61,27,63,32,63,6,210,71,62,132,124,19,191,180,132,49,190,14,192,4,190,233,230,7,192,57,48,175,189,136,88,61,191,222,197,43,62,30,143,128,191,68,123,13,61,70,162,177,190,23,226,115,61,199,151,101,190,214,29,188,61,214,99,48,191,81,230,202,190,93,21,68,190,27,236,111,189,175,220,204,188,88,96,162,62,34,94,200,191,198,253,41,62,85,187,24,189,39,252,54,62,171,220,223,61,213,28,139,189,27,153,192,191,240,172,181,62,66,235,97,189,223,7,103,190,214,174,230,61,191,165,245,59,196,104,69,62,63,254,139,190,48,47,133,61,173,180,215,60,74,13,234,191,71,231,133,188,154,226,8,191,61,65,244,60,47,176,196,191,157,80,155,188,43,243,164,189,101,97,32,190,166,72,56,190,52,152,98,60,197,45,32,191,209,51,49,191,117,179,237,189,38,135,222,60,78,253,179,188,185,9,161,62,191,9,134,191,66,199,176,61,91,72,154,189,179,231,52,62,121,251,183,61,91,81,47,60,23,255,170,191,175,183,27,62,162,181,222,188,154,124,218,189,37,238,134,61,202,12,133,190,204,108,66,62,125,55,149,190,198,80,179,61,134,23,231,60,161,32,13,192,37,195,135,61,192,135,9,191,129,116,120,61,20,55,204,191,243,57,3,60,194,7,254,189,96,94,145,189,185,108,94,190,232,71,27,61,246,136,1,191,142,63,7,191,200,206,50,190,11,208,248,187,73,244,25,189,123,103,119,62,113,237,68,191,212,222,14,62,111,179,172,59,112,191,150,61,114,26,157,61,110,112,45,189,42,81,152,191,227,252,165,61,227,85,51,189,109,205,215,189,135,249,141,61,140,76,115,61,243,20,66,62,21,192,81,190,189,226,200,188,122,140,209,61,164,155,254,191,155,15,164,61,133,238,211,190,79,4,160,61,102,91,91,191,123,27,42,189,136,161,236,189,201,35,191,189,101,96,23,190,70,150,109,61,46,221,28,191,49,247,13,191,68,131,48,190,84,50,18,61,122,54,127,60,12,223,40,62,19,248,26,191,207,162,5,62,216,160,182,189,100,9,72,189,86,216,251,61,185,108,153,188,58,53,143,191,235,41,163,61,188,63,142,188,113,59,170,186,197,98,50,61,102,14,74,61,245,69,131,62,114,220,103,190,65,135,197,60,186,88,57,62,162,149,203,191,1,107,78,61,49,85,48,191,250,124,153,61,173,8,135,191,250,148,101,59,70,165,234,189,71,161,99,61,201,114,32,190,61,212,13,61,222,104,25,191,157,92,2,191,18,135,89,190,69,202,157,61,191,40,146,60,65,185,78,62,213,19,29,191,85,213,61,62,81,84,82,187,127,97,155,62,85,242,174,61,217,91,36,61,116,128,38,191,241,111,226,60,166,245,85,189,48,17,128,189,170,68,35,61,192,213,230,62,47,235,54,62,207,145,7,190,145,114,155,61,110,151,74,62,169,181,171,191,162,128,161,62,6,13,95,191,44,56,88,189,155,134,142,191,71,132,84,188,77,103,141,189,102,176,96,62,79,78,129,190,182,101,138,61,8,88,247,190,75,232,181,190,9,205,147,190,21,245,66,61,40,247,222,61,73,83,104,62,225,219,61,191,32,160,16,62,44,153,16,190,7,52,37,63,94,70,153,60,255,206,117,61,189,13,11,191,103,117,153,186,158,113,209,187,91,253,18,190,129,48,236,61,197,163,96,63,137,18,135,62,17,174,200,189,105,138,146,61,217,164,25,62,212,233,153,191,24,204,146,62,156,13,165,191,52,179,109,189,122,12,129,191,231,176,248,189,228,36,14,189,217,139,160,61,144,4,164,190,215,142,80,62,19,69,22,191,171,91,236,190,58,204,179,190,218,146,171,61,63,187,77,62,132,201,176,62,46,201,77,191,164,31,75,62,14,89,161,189,148,234,241,62,170,237,53,61,135,0,53,61,109,163,217,190,196,122,27,189,173,68,191,59,176,17,191,190,132,178,14,59,132,176,132,63,68,121,157,62,84,134,23,191,143,19,145,59,182,23,2,62,218,24,132,191,163,222,189,62,56,110,150,191,104,127,108,190,153,12,123,191,33,244,147,189,241,141,8,189,57,78,68,60,59,32,234,62,213,56,155,62,163,149,169,61,13,46,119,62,164,225,78,190,87,160,215,190,75,147,249,60,160,94,108,62,123,103,166,62,105,84,48,191,254,91,28,190,48,63,43,189,249,162,110,189,238,184,166,190,50,170,154,190,153,161,120,190,101,122,22,189,50,182,224,62,57,93,104,62,20,117,225,62,52,251,236,61,1,217,21,61,42,150,55,62,231,74,161,62,30,214,31,60,47,81,66,62,144,197,7,61,30,245,100,190,243,186,51,63,70,38,235,189,61,116,73,190,121,118,32,189,160,73,189,62,196,172,59,62,6,93,18,62,176,151,46,62,244,63,217,189,239,126,137,190,252,123,18,60,196,5,139,62,44,209,179,60,57,241,13,191,189,12,199,188,97,218,159,189,131,88,8,60,218,91,123,189,13,165,88,190,13,66,218,189,227,216,147,189,235,144,132,62,105,218,173,61,101,206,140,62,250,119,205,61,51,251,31,188,78,66,54,188,127,76,90,62,48,195,127,189,231,244,9,62,233,61,215,189,192,90,70,190,45,154,131,63,1,70,229,189,237,30,34,190,108,146,245,59,193,42,171,62,107,148,52,62,85,22,103,59,34,250,118,62,209,244,63,190,237,109,156,190,125,79,81,61,45,63,174,62,167,157,31,188,94,26,18,191,61,195,61,189,174,35,110,189,56,153,1,187,36,89,33,190,20,181,241,189,203,235,207,189,156,249,144,189,195,108,109,62,40,25,176,61,240,173,167,62,68,7,214,61,207,209,133,60,204,13,118,61,248,171,95,62,68,244,68,190,87,163,212,61,133,109,154,189,26,106,59,190,31,164,117,63,21,99,127,189,146,16,22,190,109,125,84,61,116,10,157,62,44,23,181,61,116,64,237,61,125,216,244,61,122,70,9,190,133,135,35,190,62,69,244,59,229,68,204,62,160,141,3,61,245,228,240,190,215,176,207,189,238,2,205,189,189,87,239,189,221,48,75,190,152,146,48,189,251,54,11,190,44,143,51,189,105,140,12,62,30,11,144,61,131,52,204,62,146,43,160,61,108,200,1,61,21,41,210,61,137,49,138,62,254,245,142,189,81,95,207,61,121,136,157,189,212,112,115,190,246,86,117,63,59,83,32,189,21,154,198,189,227,164,137,60,153,238,164,62,237,95,241,60,72,108,155,61,226,107,59,62,93,99,222,189,85,1,140,190,171,143,253,188,174,83,225,62,70,149,50,61,85,194,173,190,116,174,7,190,185,223,222,188,165,37,74,189,159,126,91,190,190,178,143,189,134,170,9,60,251,21,168,188,55,220,76,62,127,255,158,60,0,204,169,62,1,67,159,61,32,201,147,187,160,55,1,61,34,20,12,62,83,17,149,189,136,59,30,61,78,60,150,188,51,242,241,189,142,220,113,63,202,215,66,189,157,28,94,189,154,185,0,61,156,114,107,62,39,66,139,188,110,18,29,62,146,57,159,62,202,52,46,189,110,183,161,190,235,71,169,56,63,198,161,62,47,182,169,189,155,143,233,190,17,96,241,189,71,136,174,189,185,156,46,187,152,136,54,190,197,40,29,189,207,188,172,189,112,89,224,187,6,201,175,62,5,107,109,61,215,3,176,62,177,34,50,61,223,54,38,61,208,137,142,187,169,60,17,62,2,121,206,189,104,74,12,61,102,150,44,189,4,94,75,190,132,189,144,63,234,172,138,189,146,141,200,188,18,200,182,61,134,93,241,62,175,244,219,61,195,181,48,62,163,132,141,62,217,200,161,189,106,1,128,190,62,176,61,189,138,173,212,62,35,158,9,61,107,195,169,190,118,224,124,190,70,157,20,190,105,214,148,188,136,41,166,190,96,212,157,59,43,117,55,188,48,131,25,189,100,9,123,62,144,26,176,61,235,252,186,62,19,104,27,61,118,57,244,60,182,147,82,60,69,101,137,61,32,61,1,190,163,216,80,61,87,193,53,189,2,10,125,190,10,129,147,63,50,23,24,190,109,7,39,189,54,112,82,62,225,137,29,63,40,145,2,62,139,58,188,62,237,60,159,62,46,239,89,190,165,32,190,190,8,217,166,189,93,156,16,63,53,162,123,62,202,104,33,190,166,180,132,190,84,55,26,190,197,44,111,61,239,15,71,190,99,66,135,187,208,208,137,61,164,158,86,189,20,7,129,62,189,227,21,62,228,207,27,63,88,60,36,61,100,106,246,61,82,83,154,61,17,96,0,62,182,82,125,189,117,15,183,61,181,140,176,189,23,95,156,190,98,33,143,63,109,99,69,190,223,194,95,62,102,154,149,62,180,207,107,61,207,239,196,187,17,228,48,62,57,17,24,190,229,30,87,190,64,15,119,61,53,155,140,189,0,218,64,190,125,93,252,189,171,197,163,189,45,152,177,190,29,243,41,63,36,226,171,188,158,67,42,60,231,33,156,61,101,18,175,191,194,174,255,61,16,48,147,62,159,96,149,189,74,221,28,191,18,210,13,191,113,163,1,191,94,88,13,62,16,107,73,191,55,181,245,62,21,138,187,62,61,65,68,190,85,44,165,188,21,254,84,191,85,9,178,188,101,0,12,61,19,61,83,62,244,94,171,60,21,176,160,60,158,43,154,188,32,244,27,190,36,134,229,189,91,50,132,61,125,22,154,61,89,190,140,57,255,193,51,190,13,100,10,189,226,188,128,190,113,186,166,62,35,207,174,186,220,45,100,61,135,234,180,62,116,215,159,191,104,157,186,61,42,28,34,62,100,34,148,188,131,65,25,191,169,21,200,190,152,44,136,190,85,7,14,189,59,152,252,190,98,171,105,62,236,37,186,62,33,136,92,190,140,220,230,189,206,192,94,191,174,254,5,61,86,164,90,61,181,180,214,60,193,234,242,61,194,166,70,188,84,185,68,62,180,178,226,189,14,61,58,190,177,143,142,61,76,240,68,60,97,205,217,59,138,145,122,190,55,111,8,189,56,55,200,189,32,248,131,62,227,67,120,189,19,120,0,62,249,159,114,62,19,243,100,191,215,168,16,61,63,34,47,62,215,82,49,189,87,59,31,191,206,101,30,190,177,70,208,189,33,83,114,189,165,185,15,191,35,162,201,61,29,63,225,62,210,89,143,189,126,21,173,189,190,8,133,191,233,52,81,189,225,234,95,189,91,136,222,189,142,208,4,62,149,184,99,61,15,74,207,61,248,236,107,190,37,79,77,190,199,27,207,61,70,116,99,188,26,160,32,61,168,245,159,190,236,222,146,61,150,208,47,190,93,92,182,62,194,217,61,61,185,43,41,189,179,90,139,62,51,88,106,191,169,161,165,61,243,17,50,61,37,227,72,189,198,2,120,191,190,12,185,189,213,39,78,60,235,186,200,188,240,98,89,191,83,59,31,61,93,143,179,62,195,223,106,190,60,40,179,189,83,107,143,191,175,87,55,189,229,207,247,189,105,134,205,189,35,183,126,61,23,6,141,187,95,2,157,61,145,118,132,190,247,231,244,189,57,170,131,61,121,59,188,61,218,63,147,189,170,176,225,190,234,105,185,61,1,245,209,189,193,73,148,62,8,232,186,61,17,178,20,188,246,208,219,62,207,37,89,191,67,90,61,188,163,6,97,188,123,224,121,189,226,17,71,191,173,67,45,61,246,20,227,60,27,233,18,190,247,193,57,191,111,126,2,60,201,150,169,62,126,235,204,190,53,101,22,61,44,193,117,191,37,40,172,189,120,215,190,60,195,9,34,190,138,4,12,188,105,227,42,61,146,49,144,189,84,126,192,190,200,57,32,190,230,189,49,61,39,142,196,189,168,138,221,61,113,209,88,190,149,230,183,61,125,152,55,188,136,172,130,62,195,49,26,190,26,140,0,62,255,56,84,62,42,213,98,191,174,184,78,61,40,250,140,189,27,182,137,60,75,187,35,191,161,132,100,189,75,240,12,62,97,4,247,188,182,70,29,191,64,142,65,61,226,42,118,62,245,237,169,190,235,230,6,62,0,95,93,191,40,170,177,188,36,58,140,61,20,149,144,190,94,14,108,61,178,140,5,61,65,186,0,190,217,121,30,190,11,15,121,60,35,194,190,61,43,44,244,189,90,207,21,62,247,25,254,190,241,84,212,61,133,47,51,188,42,197,117,61,230,168,74,190,15,158,118,61,91,69,42,62,24,222,48,191,92,237,63,61,154,126,58,61,26,41,224,61,150,10,82,191,72,26,26,62,158,173,151,61,116,221,208,189,234,206,225,190,112,124,100,62,219,57,197,62,16,241,52,191,48,17,50,189,39,97,157,191,127,75,143,189,167,18,17,61,168,27,170,190,158,30,40,62,101,101,198,188,174,242,254,189,220,161,183,190,49,241,193,61,31,128,150,61,135,247,181,189,21,247,139,61,205,233,69,191,38,6,83,61,36,192,83,61,88,215,152,190,139,14,75,190,55,185,127,190,115,175,165,189,22,252,36,191,2,64,164,61,137,53,149,190,188,249,111,62,74,46,75,191,178,32,39,62,121,68,4,189,146,54,123,190,115,255,128,191,222,206,192,62,54,95,220,62,253,193,141,191,25,128,43,190,36,155,136,191,213,53,142,189,242,109,137,61,49,197,13,62,107,177,203,190,37,63,16,191,114,145,254,189,84,41,144,60,77,4,39,63,247,69,18,191,62,213,1,191,14,240,61,63,66,8,133,189,222,239,38,190,87,249,104,62,28,59,8,62,151,114,127,190,155,174,108,62,167,156,139,62,133,242,66,61,175,153,131,190,198,206,237,62,169,209,40,62,125,31,150,190,221,151,51,61,27,21,2,62,249,166,87,62,181,126,162,189,42,115,150,188,245,150,155,62,53,172,245,61,171,119,164,59,111,95,12,63,230,109,69,188,39,125,190,188,174,164,170,61,181,98,38,191,246,144,5,191,118,16,66,61,223,221,199,189,238,82,168,62,198,51,97,191,155,89,142,190,15,173,143,62,191,100,3,190,187,10,150,190,148,195,226,61,159,146,164,61,36,147,104,190,157,134,54,62,84,143,177,61,93,64,108,58,129,45,168,190,116,103,119,62,47,223,181,61,162,169,177,190,165,32,64,188,136,149,198,61,9,221,131,189,133,21,232,60,200,106,137,189,99,29,93,62,62,126,7,187,96,217,168,189,230,123,65,63,205,223,254,189,184,155,3,188,89,234,155,61,58,26,1,191,76,144,241,190,204,228,253,189,76,110,70,189,71,251,132,61,99,182,64,191,252,88,135,190,111,74,38,190,216,165,14,190,254,199,191,190,11,77,151,189,19,247,88,188,53,210,30,189,22,225,64,62,239,31,252,61,83,180,1,62,191,241,57,190,194,193,30,62,112,213,187,61,130,104,65,190,215,137,43,189,58,191,245,61,239,210,130,60,247,239,247,190,116,77,122,188,87,109,9,62,100,42,70,189,253,253,10,188,115,243,100,63,178,28,236,189,105,165,124,189,111,154,164,61,249,186,250,190,168,172,236,190,194,235,52,61,51,49,140,189,22,183,234,61,89,80,63,191,64,125,102,190,245,154,157,61,143,72,58,189,133,170,246,190,240,88,4,190,245,111,38,61,171,140,193,189,154,12,39,62,190,214,52,61,163,148,17,62,37,151,93,190,130,219,67,62,33,21,8,62,176,49,153,190,177,113,202,189,235,247,39,60,156,182,194,61,248,74,237,190,232,212,243,188,70,23,28,61,119,9,186,187,121,89,180,59,51,229,73,63,103,71,15,190,46,221,34,189,97,130,65,61,239,84,4,191,78,10,128,190,243,25,216,188,133,210,210,189,67,170,132,61,235,57,114,191,60,95,206,190,2,99,205,189,185,224,11,62,176,230,42,191,195,93,67,190,206,26,188,61,112,72,30,190,4,242,30,59,11,157,50,61,226,183,45,61,194,1,36,190,173,178,18,62,70,42,133,61,0,109,64,190,127,3,209,189,73,75,252,60,116,136,35,61,236,24,123,190,124,115,3,189,9,55,47,61,248,98,42,189,158,2,52,189,119,1,68,63,198,127,183,189,110,221,65,189,50,189,215,61,5,243,13,191,27,122,123,188,166,37,88,188,56,69,147,187,102,55,32,62,103,71,108,191,71,251,91,190,205,204,100,190,221,8,41,62,124,199,42,191,99,122,31,190,155,159,186,61,124,84,171,189,222,252,191,189,253,52,164,61,141,255,30,61,214,144,60,190,105,111,241,61,54,14,66,61,107,144,121,190,136,201,176,189,117,210,205,60,6,62,160,61,210,214,138,190,200,25,198,188,142,27,161,61,180,243,206,60,71,183,180,61,193,183,78,63,153,117,12,189,59,219,108,189,173,200,220,61,131,48,28,191,148,234,181,190,238,15,112,188,47,56,93,61,17,209,37,62,69,176,130,191,212,182,142,190,126,30,190,190,109,35,210,62,64,91,241,190,171,178,106,190,53,77,31,188,161,82,146,61,95,96,102,58,246,185,54,62,158,210,99,189,144,245,60,61,126,133,86,61,245,232,254,188,49,33,53,190,19,220,112,189,167,135,43,61,38,179,64,59,202,73,151,190,218,203,51,188,134,187,135,62,142,135,228,188,5,106,7,62,151,140,21,63,228,168,189,189,97,164,10,190,247,3,120,62,88,62,7,191,0,134,229,190,19,151,7,61,9,173,152,189,242,42,128,61,171,160,108,191,249,67,134,190,34,248,72,189,114,35,20,63,3,69,220,190,110,60,248,189,103,223,75,62,38,4,128,61,172,141,206,190,49,153,143,62,131,52,63,188,218,72,122,190,116,204,115,188,24,233,105,189,32,36,142,190,148,135,201,189,36,214,5,62,98,185,118,61,73,46,227,189,183,132,80,188,71,226,10,63,250,172,61,187,87,30,141,62,255,158,3,63,41,203,155,62,121,26,205,189,83,228,31,191,149,253,94,61,147,192,74,190,156,13,176,62,209,226,82,190,185,63,6,63,198,199,139,61,78,4,126,62,133,176,82,62,219,84,210,62,129,53,40,189,250,48,135,62,146,3,83,61,238,137,210,190,198,184,81,189,36,167,191,190,113,26,22,191,255,160,68,190,38,89,73,190,163,250,172,190,49,83,163,190,174,116,105,61,73,127,65,62,198,86,173,62,70,5,5,62,198,225,31,62,172,233,239,62,174,34,132,190,229,38,66,190,106,167,87,63,231,62,196,61,158,21,163,189,179,135,238,190,8,162,64,62,242,126,245,189,119,171,60,62,43,217,206,188,55,8,150,62,109,56,37,62,124,231,185,61,64,233,20,62,55,134,75,62,51,2,81,61,151,228,19,62,62,237,70,60,109,211,130,190,228,122,59,189,85,82,171,190,78,26,177,190,116,21,130,190,13,221,99,190,63,55,26,190,53,56,197,189,230,183,254,60,26,137,19,62,5,133,174,61,18,254,246,60,59,225,21,62,197,102,206,62,216,88,17,190,126,227,251,189,164,71,22,63,255,231,138,61,163,85,111,189,2,114,161,190,188,157,133,62,211,223,199,189,117,170,113,61,229,234,81,62,178,58,2,62,38,85,76,189,236,191,138,61,134,129,156,61,179,89,13,189,120,141,132,61,85,32,130,61,179,50,143,61,155,5,254,189,7,59,49,190,114,230,7,190,231,220,162,190,92,121,76,60,206,78,36,188,209,194,48,188,21,111,106,190,36,188,129,188,47,213,157,59,131,6,29,61,228,13,153,61,158,171,169,61,215,94,111,62,105,66,150,189,28,42,238,189,194,253,225,62,2,171,31,62,155,91,68,60,85,191,144,190,70,199,88,62,58,132,54,187,53,23,224,60,29,57,29,62,223,37,128,62,47,57,48,190,39,232,175,189,246,158,4,62,251,4,156,189,30,202,194,61,183,216,136,189,87,225,32,62,147,35,128,190,142,136,147,190,240,81,233,189,240,51,48,190,206,211,18,61,154,20,152,190,61,234,192,60,41,55,82,190,121,10,117,189,250,77,64,61,181,71,65,61,55,162,29,62,20,62,156,61,79,79,68,62,123,11,23,61,135,102,204,60,244,116,26,63,59,150,74,188,115,66,137,60,244,103,160,190,48,132,184,61,121,136,64,189,96,236,166,188,8,29,139,62,12,65,35,62,42,84,151,190,74,199,160,190,114,25,88,62,88,182,239,61,90,150,6,189,2,42,252,189,124,175,53,62,219,32,136,190,107,87,146,190,97,118,143,61,69,153,184,190,115,26,77,62,91,251,126,189,72,196,91,60,210,64,18,61,126,71,161,189,101,169,173,61,25,14,22,189,138,210,149,61,80,96,56,62,68,203,183,61,82,129,12,62,166,217,139,189,222,105,183,62,117,22,234,60,49,78,144,59,40,102,176,190,199,71,90,190,111,237,49,190,244,178,109,60,54,93,88,62,195,154,119,61,195,21,230,190,81,87,221,190,126,192,218,188,2,255,99,190,126,155,146,189,215,36,155,189,11,252,176,62,191,233,136,189,222,124,158,190,0,189,183,61,113,252,125,190,178,129,120,62,253,10,239,187,192,20,159,61,252,139,39,190,3,241,183,189,125,225,148,188,15,30,17,61,55,23,52,62,187,246,238,61,13,83,52,62,30,166,175,61,228,97,4,61,226,215,19,189,61,248,30,61,200,168,196,61,246,7,117,190,51,29,75,190,23,184,15,62,253,220,213,61,100,43,86,61,79,128,127,61,117,162,255,190,188,212,3,191,140,190,169,61,34,68,119,61,204,180,146,189,75,248,52,190,86,208,172,62,178,50,200,189,102,120,151,190,92,5,113,62,111,197,5,189,37,225,69,190,179,197,48,62,54,121,134,61,206,15,182,189,128,202,220,189,57,148,22,62,94,96,33,188,247,183,165,61,176,51,36,62,251,115,11,62,239,208,173,61,157,233,184,58,142,183,250,61,107,197,20,188,141,11,164,62,118,35,144,190,114,68,145,190,174,130,175,190,143,47,141,61,206,165,196,61,77,29,39,62,169,112,45,191,222,121,26,191,23,166,29,188,186,150,136,62,44,135,177,189,1,87,143,189,56,198,234,62,238,14,42,190,255,132,181,190,5,165,137,62,17,247,242,61,99,236,140,190,191,249,107,62,108,230,77,62,128,72,200,189,168,221,0,190,163,156,157,62,94,17,23,61,33,70,113,61,9,208,47,62,155,159,38,62,50,152,32,61,24,131,169,61,168,26,14,62,176,144,83,189,48,55,108,61,43,163,74,188,104,202,171,190,169,76,149,190,54,79,0,62,246,147,170,191,109,110,150,62,116,150,25,191,135,252,234,190,69,162,146,191,166,205,33,61,61,4,5,191,53,222,173,61,218,235,10,189,180,52,200,61,223,45,161,62,192,202,69,61,158,131,127,62,80,105,29,191,225,221,235,186,62,234,254,189,9,87,65,191,191,143,12,62,66,217,178,188,226,193,244,188,109,46,195,190,142,63,4,190,198,224,215,189,243,2,30,62,134,0,12,62,9,108,242,191,218,38,207,188,169,51,154,61,111,95,154,188,16,44,158,189,188,61,187,189,163,22,207,60,45,141,154,191,89,77,52,62,25,103,11,191,133,227,187,189,64,154,189,190,144,137,242,61,126,108,69,190,119,177,188,59,182,100,64,59,123,198,68,61,224,229,164,61,200,183,181,188,207,161,2,62,137,215,141,190,65,119,160,189,13,209,112,57,172,145,189,190,229,22,177,61,95,27,129,189,181,174,205,59,228,244,182,189,11,97,93,61,13,207,196,58,163,26,32,62,190,118,85,61,6,190,20,192,9,137,228,59,51,190,105,61,49,136,22,61,145,155,162,189,17,58,241,190,242,83,212,60,150,165,157,191,170,142,12,62,103,243,83,191,106,187,240,188,192,47,171,190,66,219,33,62,110,250,144,190,138,87,146,60,64,242,4,188,124,107,56,61,152,117,5,61,74,51,108,189,51,93,7,189,178,70,180,189,11,187,78,190,190,20,24,60,175,187,234,190,156,8,161,61,175,247,87,188,249,80,96,61,19,109,98,189,201,27,82,61,23,87,102,189,0,170,63,61,116,158,44,59,206,231,31,192,190,200,69,60,163,57,85,61,53,169,148,188,253,90,4,190,104,71,239,190,218,49,241,61,96,187,183,191,48,177,121,188,233,23,75,191,172,166,0,186,75,179,164,189,62,13,58,62,45,232,120,190,62,130,8,189,197,197,109,189,160,133,154,61,17,83,158,60,118,218,193,189,131,32,4,189,166,122,132,190,148,143,84,190,112,111,135,188,63,224,188,190,35,70,224,60,240,145,67,189,88,160,28,61,43,242,113,186,26,207,250,60,183,97,210,187,232,176,22,62,240,126,173,61,225,57,2,192,22,234,189,61,211,222,223,60,83,152,89,61,7,218,18,190,186,23,6,191,124,20,57,61,126,54,174,191,46,140,64,188,186,134,40,191,59,197,131,189,97,193,101,190,162,177,75,62,214,23,236,189,142,113,8,61,203,96,172,189,217,222,129,61,255,46,13,62,61,195,46,61,208,66,135,190,40,10,114,190,35,241,139,190,79,251,110,188,60,186,148,190,143,143,128,188,81,190,147,188,69,110,250,61,44,224,91,190,133,198,179,188,107,31,27,61,17,45,50,62,182,58,210,61,226,45,18,192,64,240,103,61,90,166,57,59,27,199,12,60,136,76,155,189,239,89,2,191,243,202,228,60,33,172,131,191,12,139,18,189,148,189,11,191,64,134,66,190,88,132,72,190,21,122,52,62,252,68,82,190,62,34,135,184,245,210,146,189,207,244,199,61,156,79,201,61,118,253,145,61,155,144,181,188,76,220,108,190,247,149,159,190,209,226,54,189,41,117,174,190,20,246,85,61,55,155,202,188,17,212,178,61,9,14,93,190,136,166,150,187,91,200,192,61,42,29,230,61,20,255,70,62,207,240,7,192,208,155,232,60,164,182,129,60,93,15,45,189,110,178,175,190,26,207,140,190,193,198,103,61,165,90,106,191,182,36,31,190,60,255,27,191,25,152,213,189,82,103,186,190,54,166,42,62,40,251,15,190,238,96,98,61,113,122,182,189,233,223,169,61,57,234,146,61,114,240,111,61,115,166,75,62,74,189,24,191,44,27,137,190,52,195,238,189,31,201,167,190,37,199,74,61,169,188,1,189,153,177,1,62,231,40,151,190,204,109,152,189,144,15,204,60,40,129,32,62,137,33,138,62,186,120,232,191,189,0,121,61,26,186,148,187,22,255,11,188,50,44,223,190,228,30,18,191,234,149,66,62,180,225,46,191,58,204,104,190,60,49,170,191,0,240,78,189,133,233,63,191,81,5,138,62,224,99,202,190,177,22,21,188,38,14,57,189,80,84,27,61,80,129,143,61,24,5,38,62,115,160,39,62,45,65,69,191,153,201,202,190,95,55,149,190,128,45,108,191,160,136,104,61,233,30,51,189,79,36,178,61,209,179,13,191,139,215,166,188,250,15,54,62,203,120,151,62,147,72,167,62,17,38,175,191,241,124,101,190,205,21,90,63,202,253,18,190,207,80,241,190,81,9,79,62,195,234,202,187,209,169,44,191,77,2,68,190,37,83,219,61,219,84,52,190,32,127,238,190,130,252,150,191,58,23,168,59,46,204,9,190,191,90,90,189,58,129,13,61,127,92,37,62,27,111,196,190,227,104,116,188,106,120,119,191,62,20,156,62,243,153,210,62,195,75,86,190,34,90,46,189,216,153,240,62,228,237,68,190,7,122,40,63,68,160,153,190,62,120,31,60,147,20,13,191,227,102,65,61,90,188,125,191,168,54,81,189,180,106,162,62,111,252,152,189,46,1,98,191,59,241,248,60,193,45,160,61,85,4,104,191,159,127,20,190,224,192,160,61,25,183,141,188,191,74,93,190,111,151,93,191,65,25,69,189,167,174,189,60,73,22,2,190,15,188,53,190,69,203,240,189,225,83,152,190,231,17,151,61,44,67,56,191,169,59,86,62,200,25,58,62,189,114,232,189,87,164,195,58,62,119,205,61,204,162,195,189,64,141,41,62,210,183,87,190,237,23,131,61,137,22,11,190,170,154,57,61,112,200,211,191,91,142,171,59,187,185,94,62,44,189,95,189,205,67,122,191,191,108,196,61,251,94,3,62,133,82,137,191,40,77,156,189,138,131,167,61,254,169,187,59,94,195,255,189,63,101,233,190,39,76,19,189,164,136,166,188,147,253,13,190,243,151,134,190,33,30,0,190,117,63,121,189,107,179,64,62,222,202,101,191,229,174,8,62,57,58,1,62,97,214,223,189,172,194,6,190,132,198,106,189,66,60,226,60,133,21,163,187,197,158,22,190,125,25,253,60,126,138,239,61,179,226,82,61,234,168,227,191,196,52,118,189,194,77,52,62,91,93,159,60,158,164,153,191,221,14,132,189,119,128,52,62,225,88,111,191,57,70,6,189,228,139,129,61,84,108,51,60,54,181,9,189,132,23,204,189,72,23,79,188,145,154,145,60,19,217,46,190,15,235,143,190,30,78,133,190,176,41,51,188,218,207,42,62,112,19,97,191,128,69,22,61,130,54,74,61,199,200,17,189,229,160,49,190,84,107,116,190,245,251,152,189,119,147,134,189,0,226,17,190,81,166,209,61,24,184,230,60,115,202,79,62,148,28,213,191,14,190,13,187,4,224,138,61,71,115,49,189,100,137,176,191,235,232,34,190,47,136,70,62,184,82,112,191,73,11,195,189,100,19,160,60,132,179,32,62,219,109,203,61,33,159,113,62,12,20,107,189,250,77,56,61,42,29,71,189,70,172,117,190,222,28,185,190,77,221,129,62,164,195,232,62,67,79,110,191,174,153,74,189,86,137,90,61,162,64,234,189,67,105,72,190,218,67,157,189,89,6,205,59,225,38,140,190,76,163,107,60,104,123,167,61,97,138,157,189,246,2,138,62,37,132,207,191,49,174,81,187,164,154,140,189,229,88,78,61,60,144,136,191,209,216,64,190,31,241,3,62,130,23,119,191,69,48,159,190,202,190,107,61,234,89,8,62,211,154,26,62,55,195,142,61,13,183,201,60,170,170,150,60,50,130,53,189,147,104,130,190,61,46,40,190,105,231,113,61,95,143,15,62,114,231,44,191,151,5,126,190,124,228,167,60,212,14,242,59,196,246,131,190,110,2,233,190,35,229,63,61,24,136,87,190,109,1,194,61,26,35,0,62,239,9,133,190,111,64,29,62,54,43,170,191,57,55,56,60,2,143,158,190,180,235,115,61,128,13,154,191,133,178,175,190,211,42,197,189,87,189,96,191,152,32,227,190,236,32,160,61,217,9,244,61,64,208,125,62,250,181,27,61,202,238,193,59,193,107,52,62,255,27,138,190,10,1,104,189,45,239,206,190,181,20,73,189,178,52,77,62,100,212,53,191,133,23,180,190,103,200,218,185,111,196,225,189,91,144,126,190,178,111,6,191,210,118,178,61,129,17,217,189,192,83,152,62,68,44,73,62,75,93,182,190,185,17,5,62,144,210,146,191,17,62,242,60,205,99,57,191,188,172,226,61,210,112,179,191,40,45,209,190,106,116,40,62,253,157,103,191,81,178,40,191,128,142,208,60,253,41,205,61,141,32,235,62,154,63,121,62,12,48,12,60,155,70,177,61,223,242,184,190,159,28,159,62,98,232,202,190,47,95,134,61,35,254,167,62,67,59,43,191,108,153,51,191,38,163,209,189,239,82,213,190,19,223,207,189,4,1,30,191,24,70,131,62,175,82,162,189,193,65,51,63,215,123,135,62,113,155,247,190,2,10,110,62,66,190,255,190,151,233,62,190,175,190,149,190,139,11,48,191,51,63,80,190,207,247,208,60,217,29,38,190,173,249,95,191,178,126,198,189,149,235,5,59,185,168,181,61,134,125,58,62,59,144,93,61,55,191,69,62,108,175,98,188,254,193,148,62,40,182,22,189,126,212,7,63,154,104,92,59,15,113,249,62,232,210,9,60,219,165,249,191,168,119,157,189,66,107,145,60,109,92,230,62,123,151,170,61,108,178,45,61,195,5,242,61,156,118,192,188,205,244,6,62,240,148,136,62,158,66,36,191,87,200,224,191,238,231,79,189,169,105,53,190,180,150,2,191,48,171,14,190,149,14,173,61,255,116,179,61,226,188,50,191,90,122,203,189,21,36,13,189,104,18,120,61,216,12,167,61,132,45,164,189,228,168,213,61,91,103,172,189,46,238,55,62,86,25,4,189,157,21,41,62,117,171,141,61,218,194,135,62,134,132,233,59,87,84,209,191,187,88,148,61,68,78,92,61,68,164,205,62,48,193,27,189,82,50,206,60,142,77,142,61,182,43,139,61,25,234,169,60,191,185,206,62,205,133,107,190,48,193,35,192,205,227,199,189,178,241,221,189,205,48,249,190,59,123,22,190,247,253,174,189,21,109,89,62,164,102,83,191,138,140,53,61,28,229,148,60,237,108,218,61,116,86,213,61,33,15,19,189,93,187,52,61,187,190,150,188,186,4,133,62,190,156,20,189,9,30,83,61,166,16,251,189,147,198,40,62,221,4,123,61,223,12,229,191,197,251,192,61,120,59,182,188,51,103,95,62,155,87,137,188,147,11,146,188,95,127,12,62,102,78,251,187,29,228,205,189,43,252,225,62,221,93,106,189,250,77,1,192,27,224,87,190,121,174,104,189,227,82,184,190,129,25,251,189,219,60,197,61,115,20,220,60,126,226,113,191,142,158,230,61,242,227,83,188,45,70,230,61,148,159,227,61,156,122,244,60,211,124,148,61,58,162,174,189,220,51,131,62,19,201,180,61,60,47,159,61,76,100,172,189,90,150,84,60,144,24,143,61,63,175,223,191,237,67,11,62,202,58,11,62,96,0,249,61,36,131,133,187,186,113,125,60,233,177,34,62,241,49,218,61,175,224,21,190,38,190,65,62,20,139,242,60,116,92,241,191,55,149,204,190,210,117,70,190,50,142,80,190,21,13,194,189,157,83,152,61,47,100,53,190,35,18,83,191,223,106,134,61,80,169,243,59,149,231,228,61,205,57,10,62,251,152,153,61,33,169,158,61,184,25,207,189,145,12,170,61,209,241,217,61,73,98,173,61,209,170,110,189,167,95,165,61,64,125,22,61,72,223,177,191,150,119,225,61,184,93,218,187,105,61,198,61,203,54,133,189,146,87,135,188,205,4,134,61,93,51,15,61,203,59,30,190,203,77,109,62,103,188,137,61,193,131,235,191,56,187,146,190,252,154,114,190,84,151,112,190,58,188,124,189,254,26,89,61,41,184,152,190,38,40,77,191,158,208,82,60,47,43,235,188,64,16,0,61,211,42,137,61,151,242,136,61,225,219,93,61,53,65,219,189,235,145,42,62,58,7,184,61,195,64,1,62,125,128,232,189,221,18,3,188,59,87,213,61,96,25,178,191,14,137,193,61,51,79,163,61,225,178,199,187,67,1,52,190,119,126,34,61,83,81,228,61,75,34,220,61,232,193,72,190,81,147,153,62,118,163,149,61,198,210,245,191,109,155,146,190,166,108,93,190,2,190,154,188,145,151,179,188,145,253,124,61,231,2,222,190,107,20,55,191,143,146,20,62,24,117,129,189,208,72,244,60,16,210,130,62,116,1,201,60,172,105,172,60,107,66,69,189,129,185,129,62,236,9,223,60,140,223,253,186,184,181,16,190,209,20,29,62,88,126,246,61,228,174,137,191,58,173,33,61,61,239,49,190,223,234,56,62,108,174,109,190,132,101,10,61,113,210,208,61,250,63,134,62,34,156,86,190,21,142,127,62,237,96,246,188,31,26,184,191,91,186,236,190,35,96,159,190,215,110,169,188,84,84,132,60,183,40,113,62,68,13,228,190,38,205,23,191,153,156,74,62,19,250,68,60,119,144,223,61,139,0,137,62,42,255,41,62,136,132,23,60,158,196,49,189,145,138,51,62,162,131,153,188,14,119,179,188,139,41,166,189,66,98,86,62,102,91,66,61,58,128,164,191,48,2,5,62,8,59,130,190,14,3,42,62,183,215,122,190,38,1,146,59,243,83,185,61,181,44,193,62,130,248,104,189,109,25,120,62,84,136,12,59,162,122,211,191,128,106,171,188,5,34,204,61,213,116,29,190,139,49,205,61,7,237,22,191,109,217,191,61,216,86,156,62,73,235,216,62,158,209,54,62,69,103,198,189,98,185,1,191,123,197,34,63,188,66,121,61,244,47,147,189,191,66,139,62,22,4,21,190,206,139,228,59,200,61,132,190,40,172,63,190,76,142,193,191,138,249,183,62,103,52,159,190,80,222,61,190,67,236,225,60,58,38,135,190,213,133,3,62,239,227,63,191,130,125,151,189,151,44,20,61,234,103,0,190,135,104,147,61,0,1,250,61,149,186,18,60,99,253,181,61,74,67,110,189,119,54,56,62,240,20,193,190,239,71,71,61,165,6,68,62,207,238,141,62,82,152,60,62,119,48,19,190,85,1,224,190,28,33,181,62,131,139,217,61,76,138,187,189,247,34,190,61,21,192,68,189,159,107,254,188,78,244,192,189,132,194,10,62,130,201,105,191,148,198,139,62,205,32,215,189,75,203,237,189,156,97,173,61,45,170,89,188,15,20,25,61,6,108,7,191,35,158,220,189,68,207,46,189,151,190,30,190,207,146,24,61,219,215,106,62,158,200,138,188,220,61,178,61,97,212,191,57,167,230,40,62,145,146,234,190,183,1,95,61,153,239,48,62,16,184,170,62,108,91,18,189,103,87,88,190,96,119,44,191,164,227,83,62,147,164,223,189,148,142,60,190,196,20,6,62,120,239,230,189,61,188,15,190,89,112,108,189,171,70,42,62,16,116,73,191,178,44,162,62,250,73,138,189,123,208,222,188,145,189,53,62,241,184,151,61,116,73,23,61,226,179,71,191,103,109,67,189,245,238,156,61,126,203,28,189,114,182,201,61,48,116,190,62,176,38,117,188,184,47,180,60,165,219,125,189,206,73,53,186,19,163,136,190,192,99,247,60,123,181,56,62,223,25,124,62,9,24,95,190,93,190,46,190,50,29,79,191,141,33,97,62,84,103,181,189,74,136,129,189,204,7,242,61,52,213,248,189,174,71,48,189,124,28,87,61,180,61,185,61,29,196,156,190,233,28,195,62,140,58,133,189,149,78,227,189,112,143,245,61,55,41,139,61,82,132,143,189,123,136,49,191,160,7,22,60,243,208,191,60,17,142,54,59,211,151,10,188,188,7,148,62,89,4,88,189,3,242,17,189,119,154,216,188,209,60,143,189,23,225,134,190,195,6,187,61,31,102,117,62,13,30,163,62,63,250,64,190,204,75,56,190,119,241,57,191,189,135,69,62,164,190,138,189,114,104,8,62,195,188,180,61,209,218,38,190,128,70,45,187,18,20,7,60,229,44,85,187,124,7,5,191,16,215,174,62,127,86,29,61,168,43,70,189,32,160,222,61,198,230,241,61,167,50,178,59,158,76,8,191,36,20,253,61,7,191,169,61,229,52,83,61,122,113,132,61,178,163,152,62,27,145,60,188,110,195,93,188,138,126,84,188,101,196,115,189,212,188,22,191,21,26,124,61,11,46,251,61,39,170,215,62,175,108,75,188,80,170,101,190,10,220,106,191,120,41,0,62,103,108,103,189,51,121,49,189,230,220,241,188,241,46,74,190,130,169,193,60,211,154,204,188,176,158,69,189,9,46,16,191,154,86,152,62,168,1,73,189,226,19,33,190,120,79,61,62,180,104,23,189,232,190,166,60,242,219,34,191,3,126,132,189,205,128,120,62,13,217,187,58,17,148,179,61,67,39,154,62,183,73,232,60,82,42,131,58,11,177,211,61,160,65,203,189,161,212,5,191,18,18,211,61,0,231,83,62,214,112,19,63,19,81,10,61,145,154,155,189,131,111,131,191,15,20,155,62,230,174,199,61,59,177,50,189,91,8,78,62,108,181,76,190,38,167,225,188,192,160,31,189,250,141,66,61,78,116,137,190,221,148,25,62,114,143,187,60,115,239,59,190,212,238,232,61,122,69,151,189,196,122,58,187,166,125,227,190,100,22,146,59,160,138,168,62,147,127,234,188,157,91,111,61,61,7,223,62,218,215,60,61,70,77,242,189,186,207,98,62,103,130,164,190,38,189,128,191,171,148,97,62,174,234,139,61,63,253,74,63,135,217,12,190,167,97,67,188,207,9,165,191,142,237,173,62,109,155,30,62,89,20,148,189,20,60,96,62,225,251,89,190,72,143,73,189,99,234,35,190,137,13,13,62,3,134,13,191,171,132,56,62,17,167,76,189,71,43,134,190,95,65,121,62,188,173,134,190,220,60,170,61,211,99,15,191,134,136,68,187,1,14,220,62,77,191,102,189,189,7,76,61,124,118,207,62,219,174,152,60,82,161,240,61,86,201,149,61,189,105,159,62,118,52,134,190,6,138,168,62,62,108,207,190,144,231,60,189,107,53,60,188,218,212,255,189,113,229,121,62,139,32,48,62,103,118,231,191,16,59,102,191,58,14,245,61,148,170,122,190,68,66,150,62,142,103,30,61,177,165,115,190,112,168,105,60,108,80,204,190,160,160,106,188,35,94,200,62,23,46,23,62,114,5,238,189,0,36,167,61,255,171,141,62,73,238,56,191,198,5,227,190,114,139,105,62,189,246,188,60,216,214,143,191,183,235,174,61,232,190,170,188,197,192,212,189,208,131,188,61,23,35,151,190,19,180,150,62,201,247,51,190,192,79,161,62,21,35,84,60,221,167,59,190,107,118,115,62,219,77,164,61,156,12,144,191,42,75,124,191,59,203,106,62,92,193,64,190,82,252,78,62,180,78,36,187,8,241,4,190,166,167,157,59,128,234,105,191,169,185,203,60,179,10,158,62,224,47,151,189,156,74,240,189,2,8,117,188,98,29,243,62,55,189,128,191,139,40,20,191,32,127,157,62,249,194,167,189,237,64,170,191,74,59,239,60,135,200,156,189,161,111,58,190,14,21,227,61,17,157,7,190,211,244,124,62,177,45,162,189,173,41,125,62,178,225,48,60,241,1,74,190,90,162,110,62,243,120,8,190,220,57,138,191,163,209,113,191,90,232,136,62,73,13,48,190,117,103,182,61,127,55,74,190,70,88,150,190,168,190,252,187,144,252,79,191,245,235,220,187,128,121,205,62,46,148,242,60,201,130,156,189,71,100,210,189,166,43,45,63,253,161,133,191,36,100,171,190,60,108,151,62,87,48,215,189,192,124,176,191,3,54,172,189,116,126,11,190,109,250,65,190,196,34,127,61,69,246,203,189,251,182,195,62,250,67,83,61,241,144,55,189,92,100,29,61,128,73,84,189,91,20,185,62,168,252,208,190,60,83,62,191,224,30,61,191,106,129,150,62,181,68,185,188,127,172,56,62,20,231,146,188,81,17,141,190,158,33,51,60,84,231,19,190,58,0,208,188,218,19,175,62,197,163,171,187,218,233,78,190,43,23,27,190,205,9,248,62,194,63,88,191,168,22,117,190,26,37,154,62,57,25,59,61,66,240,148,191,207,251,229,189,117,223,107,190,239,32,75,190,242,70,147,62,138,245,4,61,130,35,161,62,0,52,129,188,110,241,106,190,127,107,158,59,176,120,252,188,108,84,225,62,40,39,234,190,132,17,56,191,167,199,239,190,135,179,177,62,220,94,225,187,49,182,0,187,252,243,154,188,108,24,215,190,227,243,21,61,97,102,40,62,188,32,146,188,154,99,179,62,254,130,178,188,176,43,243,189,12,195,10,190,25,57,26,63,182,21,32,191,207,50,185,61,56,83,120,62,146,64,180,189,207,130,141,191,107,50,82,61,25,235,132,190,224,242,233,189,147,126,187,62,81,14,5,62,150,238,198,62,179,119,194,189,190,243,169,190,32,204,140,61,114,86,209,61,98,71,25,63,240,241,60,191,91,88,115,191,77,26,248,190,69,206,119,62,143,86,16,190,251,25,101,190,46,177,212,189,55,204,169,190,93,199,158,61,177,238,25,62,37,175,157,189,116,25,217,62,132,33,173,188,168,93,45,190,76,78,246,189,221,183,30,63,13,54,207,190,33,103,175,62,197,111,62,62,81,77,166,190,227,180,140,191,115,186,137,61,100,17,58,190,190,245,131,60,199,184,224,62,46,124,63,61,76,226,140,62,86,41,22,190,4,66,18,191,60,200,12,62,8,202,47,62,28,253,8,63,207,4,72,191,62,91,145,191,49,46,161,190,78,99,27,62,113,180,249,189,55,17,54,189,42,223,71,190,9,121,127,190,14,216,165,61,118,229,115,61,109,230,165,189,0,16,48,62,79,43,34,59,146,234,90,190,145,76,134,189,232,102,234,62,106,233,159,189,43,58,204,62,104,162,85,62,3,244,162,190,95,62,38,191,111,206,53,188,155,63,144,190,25,144,28,62,134,119,153,62,102,107,249,60,68,142,192,62,224,250,236,189,250,62,102,191,129,4,1,62,114,149,84,62,192,98,133,62,200,211,0,191,244,115,153,191,2,71,155,190,104,237,123,62,13,195,158,189,110,65,27,190,93,68,198,190,132,209,19,190,47,45,159,61,111,85,26,190,160,65,11,190,20,105,223,188,38,181,103,60,218,199,166,190,169,234,121,189,212,68,179,62,109,246,22,62,36,208,26,63,223,121,71,62,142,46,173,190,211,63,10,190,40,19,1,188,137,150,75,61,226,85,17,59,158,73,215,61,25,45,9,190,19,243,236,61,84,143,250,62,162,62,164,62,185,143,185,188,138,136,170,188,17,100,177,189,227,52,45,63,195,169,70,188,202,232,138,190,11,200,88,190,229,157,29,190,169,45,48,62,180,200,240,190,169,111,160,62,16,87,52,61,39,210,1,190,209,154,62,190,117,29,217,62,155,51,5,190,212,191,35,62,71,137,18,62,32,152,146,62,22,211,228,60,99,155,16,191,70,239,31,191,212,218,185,62,144,77,34,63,115,192,101,189,68,159,136,189,111,82,226,187,11,110,135,187,87,89,20,190,90,74,62,189,115,171,181,62,55,237,75,62,241,26,26,60,35,152,102,189,45,93,1,190,6,75,176,62,105,140,199,188,235,140,94,190,168,155,27,190,126,41,193,189,88,109,16,62,233,130,203,190,123,153,128,62,209,206,237,57,42,108,229,61,255,96,153,189,62,55,201,62,158,255,145,189,246,131,68,61,218,116,51,188,3,111,83,62,93,121,7,61,156,135,198,190,136,118,2,191,188,207,232,61,153,48,27,63,108,157,87,60,147,97,190,189,180,82,110,61,57,227,105,189,229,141,83,190,116,13,208,188,31,130,229,62,143,94,248,61,218,189,82,61,88,195,207,189,107,27,116,189,215,237,98,62,120,78,197,60,34,93,141,189,199,124,205,189,123,129,91,190,184,174,50,62,123,177,138,190,237,248,165,62,15,9,68,61,224,188,167,61,114,158,88,189,33,180,155,62,17,28,110,187,233,234,56,61,129,121,134,189,39,206,152,61,1,178,138,60,121,184,187,190,102,246,156,190,55,163,221,61,0,170,4,63,43,86,51,59,15,241,86,190,72,212,133,61,124,167,221,188,137,120,63,190,206,113,107,189,220,17,229,62,133,160,104,61,203,242,115,61,122,240,228,189,124,246,188,189,32,18,139,62,224,42,176,189,220,136,69,189,205,197,243,189,150,71,53,190,227,61,207,61,18,46,111,190,7,67,134,62,193,10,180,60,74,73,74,61,200,205,166,188,25,235,177,62,211,212,21,61,190,97,166,61,205,117,161,59,246,6,161,188,21,235,144,60,123,47,156,190,32,20,194,190,250,181,170,61,94,73,8,63,33,191,86,60,142,168,135,61,154,121,134,61,215,220,123,188,10,203,145,189,250,169,176,189,158,190,244,62,12,100,152,61,154,0,84,61,132,119,160,189,22,121,22,188,231,174,146,62,106,144,82,186,195,145,210,60,164,36,200,188,246,147,39,190,163,240,15,62,66,178,98,190,97,225,70,62,112,209,236,60,248,147,125,62,45,25,71,189,64,116,221,62,56,93,7,62,161,185,214,61,207,35,15,60,53,127,149,188,181,89,165,61,236,180,215,190,11,228,28,190,125,23,220,61,144,166,189,62,197,136,15,61,120,61,98,189,56,47,129,187,21,109,214,189,255,146,31,190,9,127,12,189,248,9,213,62,189,58,2,62,151,31,28,189,85,61,90,189,43,194,49,188,46,88,126,62,92,152,213,188,150,180,163,188,221,86,132,188,244,52,143,190,165,75,119,61,10,39,147,190,80,21,186,62,115,8,129,60,140,65,44,62,197,244,243,188,196,190,204,62,62,104,81,62,47,253,142,62,16,73,49,61,110,231,71,188,232,110,120,62,190,186,10,191,9,34,107,190,245,113,244,60,133,219,14,63,245,100,240,59,60,21,166,61,52,152,174,187,88,81,48,189,197,15,235,189,199,79,221,189,150,30,168,62,37,187,68,62,222,60,174,187,64,234,116,189,247,194,140,61,105,111,171,62,251,16,196,60,103,174,215,61,149,70,37,189,14,207,75,190,107,127,17,62,70,16,205,190,173,94,6,63,187,112,190,60,83,38,253,188,136,17,248,60,75,14,173,62,157,83,131,62,244,197,79,61,231,42,132,61,17,171,193,61,62,69,181,188,32,63,34,191,20,228,50,190,242,96,213,188,101,221,161,187,58,10,10,62,139,202,147,61,47,206,182,189,54,181,27,189,87,234,231,189,64,125,63,190,146,164,209,62,140,49,0,63,215,240,14,189,35,132,12,60,179,78,237,61,139,89,194,62,97,162,21,61,11,67,96,62,226,126,81,190,165,127,46,190,94,172,20,63,60,120,206,190,171,246,53,63,141,254,144,189,7,179,141,62,167,254,14,62,86,241,25,63,192,108,155,62,118,200,79,189,200,219,207,61,104,203,186,62,159,151,50,61,149,133,101,191,15,225,157,190,223,127,247,61,191,85,161,62,247,139,114,189,223,245,176,189,46,203,20,61,81,23,123,189,6,223,181,62,251,198,14,63,69,198,241,61,190,137,229,190,234,14,145,60,178,117,17,62,58,127,58,63,33,191,49,190,12,197,24,190,221,132,109,62,85,125,149,190,46,112,146,190,51,228,160,62,235,92,242,189,90,63,16,191,121,117,26,62,189,135,9,62,103,5,55,61,50,109,136,62,130,61,138,60,62,187,16,190,32,10,164,189,202,139,38,191,108,192,86,190,186,194,132,61,136,227,146,62,85,162,5,62,71,141,222,190,233,54,197,188,189,32,177,61,249,230,175,59,251,244,89,188,135,56,100,62,210,87,183,62,84,251,9,62,193,52,86,190,191,149,140,61,28,101,39,62,255,0,195,62,54,99,173,190,159,216,79,60,93,47,53,62,174,181,200,190,171,186,250,189,6,173,18,62,180,107,192,187,12,144,23,191,169,83,237,60,124,93,139,61,69,201,67,61,40,161,219,62,149,21,141,61,39,159,234,189,105,40,201,189,218,154,163,190,120,117,70,190,172,101,47,62,251,255,176,62,201,41,139,189,225,232,30,191,36,63,155,187,208,169,46,61,240,27,4,61,212,32,8,62,125,16,15,62,64,188,150,62,25,91,166,61,143,180,80,190,52,142,36,187,209,92,244,61,162,223,193,62,35,93,188,190,200,118,178,189,154,118,176,189,21,105,232,190,76,37,165,60,235,146,68,62,72,191,163,59,30,16,8,191,15,53,191,60,80,81,192,61,194,44,227,59,225,49,156,62,201,14,158,188,192,11,171,189,115,247,29,190,147,40,16,190,184,249,182,190,110,150,22,62,99,253,176,62,8,209,208,189,114,187,112,191,204,218,169,60,233,45,135,60,55,56,176,60,97,75,31,62,171,88,107,62,78,59,201,62,174,129,46,62,198,61,146,189,115,221,110,60,103,99,250,61,144,96,157,62,180,124,158,190,214,108,131,189,188,187,68,190,132,0,78,190,3,27,85,61,96,158,78,62,37,160,186,61,245,148,0,191,199,240,57,61,121,82,145,189,216,3,147,188,163,39,138,62,214,246,155,189,111,181,99,188,37,214,73,189,22,226,133,61,235,76,196,190,85,223,65,62,88,192,187,62,114,64,47,61,237,187,226,190,254,70,233,61,62,136,